<pad>	0
<s>	0
</s>	0
<unk>	0
▁t	-0
▁W	-1
he	-2
le	-3
▁S	-4
at	-5
▁F	-6
▁=	-7
an	-8
▁the	-9
er	-10
ab	-11
able	-12
LE	-13
RO	-14
▁table	-15
ER	-16
CT	-17
▁SE	-18
ROM	-19
▁FROM	-20
LECT	-21
▁SELECT	-22
▁WH	-23
ERE	-24
▁WHERE	-25
▁w	-26
in	-27
on	-28
is	-29
or	-30
▁Wh	-31
▁A	-32
as	-33
am	-34
▁o	-35
en	-36
ar	-37
▁1	-38
▁is	-39
it	-40
▁of	-41
al	-42
▁s	-43
▁a	-44
▁What	-45
es	-46
▁2	-47
▁C	-48
▁p	-49
ion	-50
▁f	-51
▁h	-52
▁m	-53
▁P	-54
ic	-55
ND	-56
▁AND	-57
▁T	-58
▁c	-59
re	-60
▁d	-61
and	-62
ed	-63
ou	-64
▁R	-65
▁M	-66
ay	-67
▁D	-68
▁th	-69
cor	-70
ent	-71
▁N	-72
eam	-73
om	-74
ame	-75
▁was	-76
▁n	-77
ate	-78
▁and	-79
st	-80
▁(	-81
▁for	-82
▁H	-83
▁b	-84
▁l	-85
▁g	-86
00	-87
ow	-88
hen	-89
▁in	-90
ce	-91
um	-92
▁L	-93
▁r	-94
▁than	-95
ber	-96
ing	-97
ot	-98
il	-99
▁team	-100
ol	-101
▁when	-102
ith	-103
ation	-104
lay	-105
▁G	-106
ig	-107
▁3	-108
core	-109
ich	-110
os	-111
oun	-112
▁with	-113
▁O	-114
▁19	-115
ver	-116
▁has	-117
ts	-118
el	-119
ad	-120
ear	-121
ct	-122
▁wh	-123
id	-124
ul	-125
od	-126
ag	-127
▁B	-128
▁200	-129
▁Which	-130
▁4	-131
un	-132
▁>	-133
et	-134
▁Date	-135
▁Name	-136
▁<	-137
▁E	-138
im	-139
ch	-140
umber	-141
ir	-142
pp	-143
oin	-144
ue	-145
les	-146
ome	-147
tr	-148
▁v	-149
▁I	-150
ur	-151
▁5	-152
otal	-153
▁Y	-154
▁e	-155
▁6	-156
▁CO	-157
layer	-158
NT	-159
▁number	-160
▁man	-161
ition	-162
▁what	-163
UNT	-164
▁COUNT	-165
▁score	-166
oints	-167
est	-168
▁re	-169
ank	-170
th	-171
end	-172
oc	-173
ve	-174
ri	-175
ity	-176
▁Year	-177
▁V	-178
▁many	-179
▁20	-180
▁Re	-181
▁0	-182
▁How	-183
▁7	-184
ap	-185
ound	-186
op	-187
▁that	-188
age	-189
▁at	-190
ac	-191
onent	-192
ers	-193
pponent	-194
art	-195
ass	-196
ance	-197
▁st	-198
way	-199
▁Score	-200
ace	-201
▁y	-202
cord	-203
ain	-204
osition	-205
▁Who	-206
us	-207
▁Team	-208
▁on	-209
▁j	-210
ult	-211
▁J	-212
igh	-213
tend	-214
our	-215
▁8	-216
▁St	-217
ick	-218
IN	-219
esult	-220
▁MA	-221
are	-222
▁Player	-223
▁201	-224
▁MAX	-225
▁MIN	-226
ee	-227
less	-228
ode	-229
ub	-230
tendance	-231
inal	-232
▁less	-233
▁9	-234
▁date	-235
ore	-236
▁had	-237
ime	-238
ner	-239
em	-240
ra	-241
▁total	-242
ie	-243
▁an	-244
ill	-245
all	-246
arg	-247
▁game	-248
▁k	-249
als	-250
▁Win	-251
▁Opponent	-252
ason	-253
▁Home	-254
▁se	-255
▁10	-256
▁play	-257
▁as	-258
ire	-259
ard	-260
enue	-261
ist	-262
ountr	-263
itle	-264
▁In	-265
▁by	-266
ge	-267
▁did	-268
ia	-269
if	-270
▁199	-271
ountry	-272
▁"	-273
▁Points	-274
▁Rank	-275
ies	-276
▁points	-277
▁U	-278
▁are	-279
▁ch	-280
▁win	-281
ut	-282
up	-283
▁year	-284
ourn	-285
ro	-286
pis	-287
verage	-288
▁ha	-289
eek	-290
▁Ch	-291
ip	-292
▁le	-293
ost	-294
alle	-295
ast	-296
ocation	-297
▁Total	-298
▁Position	-299
▁At	-300
▁Se	-301
▁Away	-302
▁larg	-303
▁AV	-304
▁Record	-305
▁AVG	-306
.1	-307
▁12	-308
-1	-309
▁11	-310
ere	-311
ter	-312
▁more	-313
old	-314
ze	-315
UM	-316
rom	-317
gain	-318
here	-319
ary	-320
pisode	-321
▁SUM	-322
gainst	-323
lub	-324
▁sm	-325
▁Result	-326
▁player	-327
oss	-328
ian	-329
▁larger	-330
▁Venue	-331
▁Attendance	-332
▁18	-333
lace	-334
▁K	-335
pe	-336
▁were	-337
▁average	-338
lass	-339
oals	-340
▁#	-341
▁smalle	-342
ak	-343
qu	-344
▁have	-345
ool	-346
ron	-347
ens	-348
▁de	-349
ament	-350
▁rank	-351
omp	-352
ction	-353
ong	-354
ict	-355
ighe	-356
ournament	-357
cted	-358
ight	-359
▁Country	-360
aps	-361
▁14	-362
▁home	-363
▁Round	-364
▁to	-365
chool	-366
▁un	-367
)?	-368
▁En	-369
ions	-370
▁name	-371
▁Location	-372
▁highe	-373
▁15	-374
ish	-375
▁played	-376
raw	-377
▁When	-378
▁13	-379
ell	-380
▁record	-381
▁Time	-382
▁smaller	-383
ant	-384
▁par	-385
ning	-386
ctor	-387
amp	-388
▁No	-389
rid	-390
▁from	-391
ort	-392
own	-393
-2	-394
mber	-395
0?	-396
ount	-397
ine	-398
▁16	-399
▁episode	-400
▁be	-401
▁low	-402
▁198	-403
ru	-404
-7	-405
opul	-406
▁where	-407
ew	-408
ames	-409
▁highest	-410
ates	-411
ment	-412
eries	-413
▁position	-414
river	-415
▁no	-416
▁against	-417
ff	-418
▁Game	-419
istr	-420
▁Week	-421
ud	-422
opulation	-423
ater	-424
olle	-425
ack	-426
▁gre	-427
vent	-428
ational	-429
ilver	-430
her	-431
▁pr	-432
ronze	-433
irst	-434
▁Le	-435
▁Title	-436
▁season	-437
iv	-438
▁lowest	-439
▁De	-440
▁or	-441
▁away	-442
▁result	-443
iginal	-444
ey	-445
ated	-446
▁time	-447
2?	-448
-6	-449
row	-450
▁round	-451
iew	-452
▁title	-453
nd	-454
▁2008	-455
ess	-456
ust	-457
▁he	-458
▁17	-459
ans	-460
▁per	-461
"?	-462
pr	-463
ollege	-464
ond	-465
.5	-466
▁who	-467
▁opponent	-468
1?	-469
fer	-470
land	-471
rit	-472
▁sh	-473
istrict	-474
3?	-475
ium	-476
▁Season	-477
▁Or	-478
▁(1	-479
ton	-480
ang	-481
4?	-482
▁Pr	-483
▁Part	-484
▁won	-485
▁attendance	-486
der	-487
5?	-488
▁air	-489
▁there	-490
ague	-491
▁con	-492
oll	-493
ice	-494
odu	-495
che	-496
▁Tournament	-497
ype	-498
▁me	-499
umb	-500
6?	-501
ory	-502
▁ele	-503
assis	-504
io	-505
av	-506
.0	-507
ited	-508
rowd	-509
-0	-510
▁Con	-511
cy	-512
▁Goals	-513
eng	-514
ly	-515
7?	-516
ence	-517
▁Pick	-518
ember	-519
og	-520
▁which	-521
▁greater	-522
▁197	-523
ug	-524
.2	-525
9?	-526
orm	-527
ober	-528
▁To	-529
ompet	-530
eb	-531
–1	-532
hip	-533
ry	-534
se	-535
▁)	-536
▁(2	-537
▁scor	-538
ld	-539
▁final	-540
▁Wins	-541
000	-542
▁School	-543
pt	-544
ik	-545
ive	-546
iewers	-547
▁Place	-548
▁$	-549
▁Gold	-550
▁Draw	-551
▁High	-552
.8	-553
▁25	-554
▁mat	-555
ov	-556
ompetition	-557
▁class	-558
▁22	-559
cumb	-560
ark	-561
cumbent	-562
ision	-563
ired	-564
anu	-565
▁week	-566
▁21	-567
.9	-568
port	-569
▁gr	-570
▁Class	-571
.4	-572
8?	-573
▁24	-574
▁val	-575
▁Bronze	-576
ok	-577
eight	-578
▁code	-579
▁Laps	-580
unner	-581
.7	-582
.6	-583
▁College	-584
ationality	-585
son	-586
▁196	-587
ock	-588
▁Silver	-589
oduction	-590
oh	-591
.3	-592
ft	-593
▁Un	-594
ency	-595
▁2010	-596
6,	-597
otes	-598
▁Number	-599
vember	-600
▁series	-601
▁Ar	-602
▁City	-603
▁goals	-604
adium	-605
▁2009	-606
▁part	-607
ork	-608
▁Loss	-609
▁2011	-610
irected	-611
cc	-612
▁Eng	-613
▁Original	-614
iver	-615
▁Event	-616
ctober	-617
▁Play	-618
▁1,	-619
ure	-620
ial	-621
pril	-622
verall	-623
▁23	-624
cent	-625
▁2007	-626
01	-627
▁Club	-628
▁place	-629
▁Driver	-630
▁Gr	-631
te	-632
▁Grid	-633
ication	-634
ign	-635
ward	-636
ord	-637
ole	-638
ampions	-639
face	-640
isit	-641
outh	-642
ale	-643
▁sum	-644
▁viewers	-645
▁med	-646
ob	-647
ase	-648
man	-649
act	-650
▁+	-651
▁Population	-652
▁Winning	-653
urface	-654
▁al	-655
▁pick	-656
ors	-657
▁Al	-658
ph	-659
▁mar	-660
ier	-661
ite	-662
▁30	-663
▁country	-664
uit	-665
▁tr	-666
▁value	-667
illion	-668
▁Q	-669
come	-670
iss	-671
aw	-672
▁wins	-673
▁Winner	-674
▁District	-675
cember	-676
ade	-677
ach	-678
▁do	-679
iel	-680
▁First	-681
▁car	-682
▁27	-683
▁am	-684
uil	-685
ten	-686
odel	-687
▁/	-688
ification	-689
ane	-690
▁2012	-691
▁school	-692
▁%	-693
▁2006	-694
▁tournament	-695
▁af	-696
omin	-697
▁loss	-698
km	-699
▁scored	-700
=2	-701
anuary	-702
ference	-703
orn	-704
ah	-705
▁population	-706
▁Crowd	-707
ose	-708
▁195	-709
▁Tr	-710
orth	-711
ampionship	-712
gion	-713
ohn	-714
pen	-715
ounty	-716
ax	-717
▁29	-718
▁club	-719
▁games	-720
▁Nationality	-721
▁first	-722
▁being	-723
val	-724
▁venue	-725
▁how	-726
▁Lost	-727
▁pe	-728
▁Mar	-729
4,	-730
elb	-731
irc	-732
▁laps	-733
▁28	-734
▁us	-735
▁Cup	-736
lo	-737
▁League	-738
▁Played	-739
30	-740
requ	-741
▁cap	-742
▁Competition	-743
rea	-744
ritten	-745
une	-746
ptember	-747
3,	-748
ries	-749
inish	-750
▁high	-751
▁match	-752
ourne	-753
requency	-754
▁location	-755
ebru	-756
AT	-757
ebruary	-758
▁united	-759
▁sp	-760
▁driver	-761
▁Nation	-762
▁Against	-763
ina	-764
▁On	-765
elbourne	-766
per	-767
▁city	-768
▁6–	-769
▁does	-770
▁elected	-771
ann	-772
:00	-773
ath	-774
▁Series	-775
▁eng	-776
1,	-777
enn	-778
andid	-779
▁draw	-780
anc	-781
▁Party	-782
▁The	-783
▁gold	-784
ile	-785
▁Area	-786
illions	-787
▁Sh	-788
▁ar	-789
▁Per	-790
5,	-791
ateg	-792
ix	-793
▁1?	-794
irector	-795
▁Incumbent	-796
▁after	-797
▁Type	-798
oup	-799
▁26	-800
ield	-801
bound	-802
erv	-803
0,	-804
ilm	-805
ck	-806
▁For	-807
ches	-808
▁years	-809
▁list	-810
isitor	-811
ele	-812
stru	-813
ategory	-814
▁Where	-815
▁winner	-816
ric	-817
2,	-818
ons	-819
atal	-820
ircuit	-821
ern	-822
bounds	-823
▁type	-824
▁Top	-825
ood	-826
atus	-827
2)	-828
ubl	-829
▁Episode	-830
▁br	-831
▁medals	-832
▁2,	-833
lease	-834
▁qu	-835
omm	-836
▁leg	-837
▁State	-838
eth	-839
▁silver	-840
ual	-841
▁Out	-842
▁2?	-843
10	-844
ont	-845
▁Mat	-846
ib	-847
▁original	-848
19	-849
ss	-850
▁most	-851
vin	-852
▁Ele	-853
ide	-854
▁grid	-855
uly	-856
ille	-857
▁Th	-858
ugust	-859
▁all	-860
▁min	-861
centage	-862
form	-863
▁new	-864
enter	-865
▁Tell	-866
oub	-867
one	-868
▁Car	-869
▁district	-870
ider	-871
ating	-872
▁app	-873
▁Overall	-874
fore	-875
▁race	-876
▁under	-877
▁Surface	-878
▁area	-879
▁Games	-880
▁over	-881
▁ex	-882
ople	-883
▁assis	-884
▁assists	-885
ivers	-886
▁Years	-887
ats	-888
▁2005	-889
▁bronze	-890
cot	-891
▁US	-892
▁event	-893
▁state	-894
▁Race	-895
atalog	-896
ower	-897
-3	-898
▁Br	-899
▁Pro	-900
let	-901
▁pro	-902
ne	-903
▁april	-904
▁Average	-905
ral	-906
▁sing	-907
▁before	-908
▁Cap	-909
oy	-910
▁New	-911
ake	-912
▁ad	-913
ote	-914
8,	-915
▁rebounds	-916
7,	-917
ivision	-918
abel	-919
▁production	-920
▁runner	-921
▁stadium	-922
14	-923
▁people	-924
ird	-925
▁0?	-926
ards	-927
ange	-928
▁made	-929
▁Losses	-930
stit	-931
lish	-932
▁may	-933
▁classification	-934
▁pl	-935
orld	-936
oubles	-937
▁Runner	-938
▁co	-939
etired	-940
mer	-941
▁october	-942
–2	-943
structor	-944
12	-945
rd	-946
▁-	-947
raft	-948
ther	-949
oney	-950
▁&	-951
▁ear	-952
-4	-953
▁it	-954
▁App	-955
ail	-956
▁listed	-957
▁Co	-958
ude	-959
andidates	-960
▁(7	-961
▁Height	-962
▁3,	-963
imum	-964
▁crowd	-965
▁winning	-966
▁november	-967
gh	-968
ind	-969
▁Sp	-970
oint	-971
Retired	-972
iversity	-973
▁November	-974
▁end	-975
▁TH	-976
tern	-977
▁Written	-978
az	-979
ior	-980
▁Drawn	-981
▁Directed	-982
▁comp	-983
uk	-984
▁Visitor	-985
▁Production	-986
acity	-987
▁directed	-988
▁states	-989
-5	-990
▁3?	-991
oal	-992
▁Frequency	-993
",	-994
res	-995
▁2004	-996
13	-997
▁tim	-998
▁ass	-999
▁1:	-1000
▁County	-1001
argin	-1002
de	-1003
ican	-1004
▁Final	-1005
eat	-1006
▁day	-1007
odes	-1008
ator	-1009
acing	-1010
▁Region	-1011
▁nomin	-1012
▁percentage	-1013
Club	-1014
itude	-1015
▁Form	-1016
▁194	-1017
▁million	-1018
▁Res	-1019
iz	-1020
iam	-1021
50	-1022
80	-1023
▁pre	-1024
▁31	-1025
▁Chassis	-1026
▁loc	-1027
▁Stadium	-1028
oot	-1029
▁Can	-1030
▁pri	-1031
▁south	-1032
ike	-1033
vel	-1034
▁An	-1035
▁cup	-1036
▁32	-1037
irth	-1038
ler	-1039
▁college	-1040
▁December	-1041
▁Ex	-1042
▁park	-1043
▁oval	-1044
▁(6	-1045
▁4?	-1046
ley	-1047
cond	-1048
▁show	-1049
▁October	-1050
▁ent	-1051
▁amount	-1052
ets	-1053
▁4,	-1054
ouse	-1055
▁melbourne	-1056
▁party	-1057
▁league	-1058
▁losses	-1059
▁incumbent	-1060
▁lost	-1061
▁Engine	-1062
off	-1063
▁Bl	-1064
▁doubles	-1065
▁,	-1066
ll	-1067
▁January	-1068
▁model	-1069
▁col	-1070
ners	-1071
▁Opponents	-1072
urr	-1073
▁engine	-1074
ues	-1075
▁If	-1076
▁buil	-1077
▁september	-1078
▁5?	-1079
▁km	-1080
▁2001	-1081
▁Outcome	-1082
▁2003	-1083
▁Tie	-1084
▁Director	-1085
ins	-1086
▁Set	-1087
▁out	-1088
▁fr	-1089
ous	-1090
erson	-1091
▁United	-1092
▁Pri	-1093
▁English	-1094
▁Championship	-1095
att	-1096
ative	-1097
gr	-1098
bur	-1099
ethod	-1100
li	-1101
▁they	-1102
ounded	-1103
pisodes	-1104
20	-1105
-10	-1106
uns	-1107
▁Pre	-1108
▁2000	-1109
▁Model	-1110
ena	-1111
icip	-1112
▁Col	-1113
▁few	-1114
ony	-1115
▁34	-1116
▁Circuit	-1117
day	-1118
▁100	-1119
9,	-1120
▁z	-1121
%?	-1122
▁top	-1123
▁April	-1124
▁competition	-1125
ash	-1126
erm	-1127
▁35	-1128
ustral	-1129
hed	-1130
▁res	-1131
▁vict	-1132
mi	-1133
nes	-1134
roll	-1135
11	-1136
ree	-1137
▁John	-1138
▁Catalog	-1139
pl	-1140
▁gu	-1141
▁december	-1142
ham	-1143
▁Art	-1144
uch	-1145
▁dif	-1146
▁least	-1147
ese	-1148
ager	-1149
ution	-1150
▁Draws	-1151
▁May	-1152
▁5,	-1153
▁march	-1154
▁off	-1155
▁held	-1156
▁i	-1157
vince	-1158
aj	-1159
▁singles	-1160
vg	-1161
▁max	-1162
FL	-1163
▁Dec	-1164
co	-1165
▁(8	-1166
omet	-1167
▁Open	-1168
▁times	-1169
ced	-1170
red	-1171
▁38	-1172
▁Comp	-1173
▁–	-1174
ings	-1175
▁spe	-1176
osing	-1177
▁trans	-1178
▁February	-1179
etw	-1180
uth	-1181
15	-1182
▁bl	-1183
ission	-1184
▁attend	-1185
rollment	-1186
99	-1187
angu	-1188
fact	-1189
▁overall	-1190
1)	-1191
▁THE	-1192
uring	-1193
▁March	-1194
by	-1195
inc	-1196
▁ge	-1197
aun	-1198
owns	-1199
tain	-1200
▁votes	-1201
▁championship	-1202
▁q	-1203
ada	-1204
oci	-1205
▁john	-1206
▁Finish	-1207
▁finish	-1208
ize	-1209
▁2002	-1210
▁award	-1211
esent	-1212
▁WHAT	-1213
alif	-1214
ickn	-1215
lete	-1216
▁Air	-1217
▁open	-1218
ama	-1219
any	-1220
ven	-1221
▁IS	-1222
ris	-1223
▁2013	-1224
▁january	-1225
mp	-1226
road	-1227
▁Mc	-1228
▁Category	-1229
▁ph	-1230
▁one	-1231
▁Fr	-1232
aced	-1233
▁Pl	-1234
▁june	-1235
erman	-1236
annel	-1237
▁Call	-1238
itt	-1239
▁33	-1240
ital	-1241
ington	-1242
ai	-1243
omen	-1244
▁Partner	-1245
▁north	-1246
ense	-1247
16	-1248
–0	-1249
▁yes	-1250
unior	-1251
▁Artist	-1252
/0	-1253
me	-1254
▁Format	-1255
▁nation	-1256
-9	-1257
▁36	-1258
astest	-1259
▁[	-1260
–6,	-1261
ener	-1262
▁sw	-1263
▁Status	-1264
au	-1265
ds	-1266
urer	-1267
▁ind	-1268
25	-1269
▁ed	-1270
-71	-1271
ical	-1272
ex	-1273
▁Ad	-1274
▁Qu	-1275
aces	-1276
▁Z	-1277
ocr	-1278
emocr	-1279
af	-1280
ari	-1281
▁sign	-1282
-8	-1283
avid	-1284
▁South	-1285
▁february	-1286
ago	-1287
lin	-1288
mond	-1289
▁Buil	-1290
▁Lane	-1291
▁whose	-1292
-70	-1293
ild	-1294
▁40	-1295
ampion	-1296
yd	-1297
▁start	-1298
urrent	-1299
),	-1300
ng	-1301
▁str	-1302
elong	-1303
ensity	-1304
▁Label	-1305
millions	-1306
▁su	-1307
anguage	-1308
lor	-1309
ret	-1310
▁Man	-1311
▁dec	-1312
illiam	-1313
uck	-1314
▁FA	-1315
▁Lead	-1316
▁west	-1317
aul	-1318
▁form	-1319
▁Notes	-1320
go	-1321
▁(201	-1322
onus	-1323
▁Trans	-1324
▁Tries	-1325
▁associ	-1326
▁u	-1327
publ	-1328
wood	-1329
etwork	-1330
▁6?	-1331
amil	-1332
▁grand	-1333
▁if	-1334
▁best	-1335
▁50	-1336
cast	-1337
▁(200	-1338
▁serv	-1339
▁Release	-1340
vers	-1341
▁august	-1342
17	-1343
AA	-1344
▁you	-1345
▁Film	-1346
▁Song	-1347
facturer	-1348
▁episodes	-1349
26	-1350
apan	-1351
ults	-1352
▁song	-1353
uts	-1354
ville	-1355
ists	-1356
▁10,	-1357
▁June	-1358
▁el	-1359
▁Off	-1360
40	-1361
bum	-1362
ished	-1363
18	-1364
9)	-1365
rist	-1366
▁teams	-1367
emocrat	-1368
▁surface	-1369
▁Constructor	-1370
sh	-1371
▁july	-1372
▁smallest	-1373
▁Money	-1374
ickname	-1375
je	-1376
▁Entr	-1377
rew	-1378
▁6,	-1379
▁7?	-1380
icket	-1381
yr	-1382
uss	-1383
▁Spe	-1384
-69	-1385
▁Award	-1386
ael	-1387
▁North	-1388
▁42	-1389
▁Ge	-1390
ometown	-1391
ney	-1392
bert	-1393
▁Gre	-1394
▁Ind	-1395
▁Reg	-1396
▁Rider	-1397
ternational	-1398
▁(5	-1399
▁37	-1400
▁cl	-1401
▁art	-1402
gment	-1403
▁Grand	-1404
▁char	-1405
▁film	-1406
–6	-1407
:30	-1408
vi	-1409
-68	-1410
ope	-1411
ford	-1412
▁not	-1413
▁fewer	-1414
ino	-1415
ales	-1416
▁group	-1417
▁much	-1418
▁September	-1419
▁associated	-1420
ger	-1421
▁lead	-1422
amed	-1423
nings	-1424
▁Long	-1425
4)	-1426
err	-1427
▁Min	-1428
▁Margin	-1429
▁x	-1430
ased	-1431
elev	-1432
▁1999	-1433
▁draws	-1434
37	-1435
itz	-1436
▁ab	-1437
CA	-1438
▁45	-1439
▁8?	-1440
▁world	-1441
▁Ed	-1442
ource	-1443
▁used	-1444
▁manager	-1445
ress	-1446
uthor	-1447
▁Par	-1448
▁lap	-1449
ox	-1450
▁States	-1451
▁election	-1452
▁University	-1453
tra	-1454
unicip	-1455
▁70	-1456
ality	-1457
▁category	-1458
▁wr	-1459
ances	-1460
org	-1461
sc	-1462
▁county	-1463
stitution	-1464
ars	-1465
ave	-1466
len	-1467
▁size	-1468
▁release	-1469
▁0,	-1470
ched	-1471
▁(10	-1472
▁can	-1473
ki	-1474
▁run	-1475
24	-1476
DP	-1477
oles	-1478
▁Entrant	-1479
34	-1480
▁39	-1481
▁en	-1482
ough	-1483
ular	-1484
▁Run	-1485
icense	-1486
▁Candidates	-1487
ita	-1488
▁7,	-1489
▁site	-1490
▁nationality	-1491
36	-1492
▁bonus	-1493
ountain	-1494
27	-1495
ures	-1496
▁1996	-1497
mm	-1498
▁Goal	-1499
ett	-1500
▁fin	-1501
▁Char	-1502
▁ever	-1503
▁largest	-1504
▁Ph	-1505
▁Viewers	-1506
IT	-1507
que	-1508
▁region	-1509
eg	-1510
▁Med	-1511
▁long	-1512
▁height	-1513
▁Melbourne	-1514
35	-1515
ota	-1516
▁46	-1517
▁West	-1518
▁victory	-1519
▁def	-1520
▁August	-1521
▁Weight	-1522
98	-1523
▁44	-1524
part	-1525
▁Start	-1526
▁@	-1527
out	-1528
ster	-1529
▁Avg	-1530
▁millions	-1531
ied	-1532
imin	-1533
ural	-1534
▁chassis	-1535
▁Sw	-1536
▁1998	-1537
air	-1538
▁mc	-1539
▁sl	-1540
eter	-1541
ichael	-1542
▁2008?	-1543
▁division	-1544
▁8,	-1545
▁bar	-1546
ccess	-1547
▁El	-1548
▁Ath	-1549
▁Bar	-1550
▁draft	-1551
▁located	-1552
▁Capacity	-1553
-72	-1554
▁54	-1555
oad	-1556
▁Method	-1557
▁68	-1558
▁July	-1559
▁12,	-1560
present	-1561
▁attended	-1562
38	-1563
its	-1564
▁69	-1565
▁14,	-1566
▁member	-1567
▁Qual	-1568
▁comm	-1569
publican	-1570
▁maximum	-1571
HL	-1572
na	-1573
ull	-1574
▁rate	-1575
kg	-1576
.14	-1577
▁cor	-1578
▁ste	-1579
▁47	-1580
reet	-1581
ustralia	-1582
▁director	-1583
3)	-1584
ald	-1585
▁des	-1586
▁shows	-1587
ics	-1588
▁49	-1589
ka	-1590
uc	-1591
orts	-1592
▁Ass	-1593
olling	-1594
▁status	-1595
▁Matches	-1596
29	-1597
Hz	-1598
-25	-1599
▁11,	-1600
istance	-1601
▁players	-1602
▁tell	-1603
▁Member	-1604
▁He	-1605
view	-1606
icago	-1607
ident	-1608
▁artist	-1609
▁Apps	-1610
▁Park	-1611
eneral	-1612
▁aired	-1613
ks	-1614
▁during	-1615
▁ranked	-1616
▁service	-1617
▁48	-1618
▁big	-1619
ascot	-1620
▁Comm	-1621
▁named	-1622
ouis	-1623
▁20,	-1624
ength	-1625
▁frequency	-1626
ili	-1627
▁GDP	-1628
▁Pos	-1629
▁matches	-1630
▁Division	-1631
▁16,	-1632
▁Length	-1633
28	-1634
yl	-1635
ati	-1636
ica	-1637
uel	-1638
ensus	-1639
ption	-1640
▁Birth	-1641
eh	-1642
▁Stage	-1643
▁rich	-1644
%)	-1645
min	-1646
▁Best	-1647
▁written	-1648
▁nominated	-1649
.12	-1650
lex	-1651
omb	-1652
▁2:	-1653
▁Manu	-1654
antity	-1655
▁every	-1656
75	-1657
gg	-1658
▁1990	-1659
urn	-1660
▁stage	-1661
unicipality	-1662
▁As	-1663
riter	-1664
urope	-1665
▁host	-1666
▁change	-1667
▁station	-1668
emocratic	-1669
▁71	-1670
▁Mark	-1671
led	-1672
▁sub	-1673
▁cont	-1674
ving	-1675
33	-1676
.11	-1677
acter	-1678
▁Station	-1679
▁circuit	-1680
45	-1681
▁9,	-1682
▁9?	-1683
ston	-1684
▁Men	-1685
ky	-1686
club	-1687
▁1997	-1688
▁By	-1689
▁Pe	-1690
▁Power	-1691
▁rating	-1692
96	-1693
97	-1694
roadcast	-1695
/2	-1696
▁TV	-1697
ball	-1698
odium	-1699
olina	-1700
▁Scor	-1701
▁sc	-1702
▁19,	-1703
▁Ste	-1704
▁Other	-1705
isiting	-1706
▁41	-1707
etro	-1708
field	-1709
elevision	-1710
cl	-1711
ung	-1712
▁Prix	-1713
▁higher	-1714
05	-1715
ij	-1716
ida	-1717
▁mon	-1718
atest	-1719
ec	-1720
▁1994	-1721
▁house	-1722
ATA	-1723
ims	-1724
▁And	-1725
▁reg	-1726
arter	-1727
▁ER	-1728
▁second	-1729
▁candidates	-1730
ander	-1731
anding	-1732
fl	-1733
▁10?	-1734
endon	-1735
▁wat	-1736
▁mark	-1737
ara	-1738
over	-1739
▁built	-1740
onto	-1741
▁List	-1742
▁wind	-1743
▁67	-1744
▁18,	-1745
▁density	-1746
ana	-1747
▁Cl	-1748
▁la	-1749
▁rece	-1750
▁rounds	-1751
uper	-1752
▁Dif	-1753
terview	-1754
22	-1755
▁66	-1756
erry	-1757
▁15,	-1758
▁Gen	-1759
▁income	-1760
39	-1761
ush	-1762
ones	-1763
ister	-1764
▁1995	-1765
▁Conference	-1766
▁Enrollment	-1767
yn	-1768
mph	-1769
▁Tor	-1770
▁opponents	-1771
AN	-1772
bo	-1773
aly	-1774
ouch	-1775
▁Match	-1776
▁tries	-1777
▁Events	-1778
▁perform	-1779
▁tor	-1780
loors	-1781
▁Women	-1782
▁ERP	-1783
▁1992	-1784
▁power	-1785
▁Hometown	-1786
ise	-1787
0)	-1788
oe	-1789
und	-1790
iana	-1791
▁NHL	-1792
▁ath	-1793
▁From	-1794
48	-1795
date	-1796
icles	-1797
▁1991	-1798
▁last	-1799
▁racing	-1800
▁channel	-1801
va	-1802
/19	-1803
ona	-1804
ray	-1805
▁72	-1806
▁Pole	-1807
▁minimum	-1808
)-	-1809
56	-1810
ove	-1811
▁bel	-1812
▁haw	-1813
▁ticket	-1814
▁Is	-1815
▁feat	-1816
▁Group	-1817
▁Athlete	-1818
▁capacity	-1819
47	-1820
▁World	-1821
▁Rating	-1822
AR	-1823
▁52	-1824
obert	-1825
▁Oval	-1826
▁person	-1827
▁ranking	-1828
▁57	-1829
▁17,	-1830
▁est	-1831
▁san	-1832
▁IATA	-1833
▁prix	-1834
▁Nickname	-1835
▁Manufacturer	-1836
OR	-1837
onn	-1838
▁43	-1839
ersey	-1840
▁york	-1841
-73	-1842
roy	-1843
▁fl	-1844
ants	-1845
oice	-1846
▁(%)	-1847
▁office	-1848
▁license	-1849
.13	-1850
iod	-1851
yle	-1852
▁55	-1853
cott	-1854
hold	-1855
▁word	-1856
▁wrote	-1857
br	-1858
.15	-1859
▁56	-1860
thorn	-1861
▁Rich	-1862
▁Founded	-1863
▁numbers	-1864
▁constructor	-1865
fe	-1866
ITH	-1867
ixed	-1868
▁vac	-1869
going	-1870
placed	-1871
▁their	-1872
ha	-1873
ays	-1874
▁birth	-1875
▁university	-1876
21	-1877
tt	-1878
00?	-1879
lton	-1880
liest	-1881
▁earliest	-1882
23	-1883
.16	-1884
CAO	-1885
cer	-1886
000)	-1887
anel	-1888
▁WITH	-1889
▁With	-1890
▁hard	-1891
95	-1892
odiums	-1893
▁rider	-1894
▁share	-1895
▁73	-1896
▁Japan	-1897
▁Segment	-1898
▁Province	-1899
=28	-1900
▁12?	-1901
▁goal	-1902
leased	-1903
andidate	-1904
▁Ends	-1905
▁call	-1906
▁point	-1907
million	-1908
▁Fastest	-1909
▁Election	-1910
▁Language	-1911
back	-1912
lymp	-1913
▁foot	-1914
ermany	-1915
-67	-1916
ico	-1917
▁Ear	-1918
▁scorer	-1919
uthority	-1920
pm	-1921
ams	-1922
▁center	-1923
▁GP	-1924
▁11?	-1925
oston	-1926
stitu	-1927
HS	-1928
▁Third	-1929
04	-1930
offs	-1931
wner	-1932
▁13,	-1933
▁25,	-1934
ouchd	-1935
▁town	-1936
hel	-1937
kip	-1938
▁ac	-1939
ngth	-1940
riend	-1941
▁titled	-1942
▁weight	-1943
▁Difference	-1944
▁Institution	-1945
ps	-1946
ty	-1947
els	-1948
vious	-1949
▁Last	-1950
ameter	-1951
▁appoint	-1952
▁Champion	-1953
06	-1954
57	-1955
isp	-1956
itles	-1957
oined	-1958
aid	-1959
ages	-1960
inia	-1961
▁22,	-1962
▁Won	-1963
▁ID	-1964
▁IHS	-1965
▁San	-1966
▁act	-1967
ansas	-1968
▁2007?	-1969
▁Nomin	-1970
08	-1971
000?	-1972
ject	-1973
▁1993	-1974
07	-1975
amb	-1976
isc	-1977
▁men	-1978
▁ICAO	-1979
▁lane	-1980
▁Report	-1981
▁Second	-1982
▁length	-1983
ollingwood	-1984
6)	-1985
rs	-1986
-11	-1987
omas	-1988
udio	-1989
▁24,	-1990
▁Lat	-1991
▁Code	-1992
▁Sing	-1993
vening	-1994
▁captain	-1995
uff	-1996
elph	-1997
▁2011?	-1998
▁money	-1999
▁Perform	-2000
7)	-2001
ela	-2002
oria	-2003
usic	-2004
areer	-2005
▁dates	-2006
▁speed	-2007
ouchdowns	-2008
stituency	-2009
▁difference	-2010
US	-2011
ya	-2012
▁Me	-2013
▁IHSAA	-2014
▁Network	-2015
▁14?	-2016
▁Opp	-2017
onsor	-2018
▁2010?	-2019
▁AA	-2020
▁up	-2021
▁Town	-2022
▁count	-2023
arr	-2024
oper	-2025
omens	-2026
ydney	-2027
ferent	-2028
▁actor	-2029
▁notes	-2030
atio	-2031
scray	-2032
etroit	-2033
▁format	-2034
▁pm	-2035
▁Mon	-2036
▁York	-2037
junior	-2038
▁margin	-2039
32	-2040
ano	-2041
▁Gu	-2042
ancy	-2043
amily	-2044
▁drawn	-2045
-200	-2046
exas	-2047
ssue	-2048
▁met	-2049
▁Amer	-2050
31	-2051
but	-2052
rica	-2053
▁Des	-2054
imsuit	-2055
▁Center	-2056
02	-2057
49	-2058
▁1989	-2059
unction	-2060
▁qualif	-2061
ko	-2062
▁+1	-2063
▁3:	-2064
▁51	-2065
▁23,	-2066
▁MHz	-2067
ities	-2068
▁born	-2069
▁cent	-2070
▁Field	-2071
lot	-2072
▁OF	-2073
ania	-2074
itzroy	-2075
uration	-2076
▁different	-2077
ling	-2078
▁clay	-2079
▁william	-2080
55	-2081
ke	-2082
ding	-2083
ilad	-2084
▁manu	-2085
elphia	-2086
▁2009?	-2087
▁David	-2088
▁field	-2089
▁appear	-2090
▁report	-2091
iladelphia	-2092
cri	-2093
oph	-2094
▁58	-2095
▁kn	-2096
▁tie	-2097
▁Racing	-2098
▁having	-2099
▁airdate	-2100
ta	-2101
▁cr	-2102
ornia	-2103
▁Heat	-2104
▁vers	-2105
▁results	-2106
▁visitor	-2107
alifornia	-2108
the	-2109
▁74	-2110
▁13?	-2111
▁21,	-2112
▁mot	-2113
▁death	-2114
▁third	-2115
▁depart	-2116
▁nomination	-2117
ma	-2118
eff	-2119
oor	-2120
reg	-2121
orge	-2122
▁Sem	-2123
oving	-2124
▁hill	-2125
▁Current	-2126
to	-2127
▁label	-2128
▁other	-2129
▁founded	-2130
▁Mountain	-2131
.10	-2132
urs	-2133
arts	-2134
▁Los	-2135
▁plays	-2136
▁Mascot	-2137
▁catalog	-2138
5)	-2139
-74	-2140
▁60	-2141
▁dr	-2142
erem	-2143
▁30,	-2144
inese	-2145
▁ship	-2146
▁Track	-2147
AL	-2148
ene	-2149
oul	-2150
0000	-2151
▁pat	-2152
▁Byes	-2153
▁Poles	-2154
▁david	-2155
▁contest	-2156
use	-2157
▁76	-2158
▁Be	-2159
▁Source	-2160
aff	-2161
▁59	-2162
icial	-2163
retired	-2164
▁conference	-2165
46	-2166
▁X	-2167
▁Su	-2168
lorida	-2169
▁Sport	-2170
▁album	-2171
iameter	-2172
▁Classification	-2173
▁Ob	-2174
okes	-2175
▁Cuts	-2176
asseng	-2177
▁events	-2178
AM	-2179
▁Laun	-2180
▁want	-2181
nesota	-2182
▁Republican	-2183
85	-2184
86	-2185
bor	-2186
▁com	-2187
▁Site	-2188
▁Transfer	-2189
▁enrollment	-2190
.17	-2191
ody	-2192
ves	-2193
ilda	-2194
▁ess	-2195
▁Head	-2196
▁Term	-2197
▁term	-2198
▁seats	-2199
▁current	-2200
▁Municipality	-2201
09	-2202
-12	-2203
imm	-2204
mon	-2205
▁($	-2206
▁53	-2207
ench	-2208
lant	-2209
▁qual	-2210
▁Speed	-2211
▁It	-2212
▁Ne	-2213
ison	-2214
▁Pat	-2215
ockey	-2216
▁Oper	-2217
▁success	-2218
con	-2219
▁65	-2220
cher	-2221
igin	-2222
▁1987	-2223
▁order	-2224
▁outcome	-2225
of	-2226
zz	-2227
-1?	-2228
ado	-2229
ech	-2230
▁(4	-2231
cies	-2232
▁16?	-2233
▁ret	-2234
▁Host	-2235
▁king	-2236
▁Actor	-2237
▁Airport	-2238
▁released	-2239
▁Cr	-2240
sign	-2241
ured	-2242
ceded	-2243
▁bill	-2244
▁mean	-2245
ensive	-2246
▁capita	-2247
▁friend	-2248
cription	-2249
▁airport	-2250
▁chicago	-2251
▁fastest	-2252
▁appointment	-2253
▁Bill	-2254
▁entry	-2255
▁international	-2256
ES	-2257
=14	-2258
alt	-2259
irg	-2260
▁bo	-2261
▁McC	-2262
▁fee	-2263
▁tom	-2264
geles	-2265
▁oper	-2266
▁pole	-2267
asters	-2268
▁Ground	-2269
▁visiting	-2270
hz	-2271
oth	-2272
▁Rom	-2273
▁got	-2274
ffili	-2275
▁seasons	-2276
▁Distance	-2277
▁]	-2278
ata	-2279
emp	-2280
inn	-2281
oke	-2282
ula	-2283
▁Cent	-2284
sen	-2285
ince	-2286
▁1986	-2287
▁Built	-2288
▁bigger	-2289
▁Quantity	-2290
iga	-2291
▁Loc	-2292
leted	-2293
▁Peak	-2294
▁Europe	-2295
▁company	-2296
▁qualify	-2297
▁essendon	-2298
76	-2299
▁√	-2300
ani	-2301
vol	-2302
reak	-2303
▁Prize	-2304
ination	-2305
▁method	-2306
▁values	-2307
AS	-2308
▁75	-2309
ickets	-2310
ifinal	-2311
lation	-2312
▁Album	-2313
▁champion	-2314
▁64	-2315
▁78	-2316
icle	-2317
mier	-2318
▁15?	-2319
▁decision	-2320
be	-2321
unt	-2322
ved	-2323
ally	-2324
lier	-2325
arden	-2326
▁broadcast	-2327
▁originally	-2328
▁tournaments	-2329
bs	-2330
The	-2331
▁(9	-2332
burg	-2333
ians	-2334
▁27,	-2335
▁mag	-2336
▁6–4,	-2337
▁Paul	-2338
▁street	-2339
▁William	-2340
▁Democratic	-2341
ban	-2342
▁All	-2343
▁Day	-2344
▁Haw	-2345
▁Mot	-2346
▁Net	-2347
▁set	-2348
▁Order	-2349
▁Races	-2350
▁Decile	-2351
▁Channel	-2352
▁Decision	-2353
▁International	-2354
osh	-2355
▁Af	-2356
berg	-2357
osed	-2358
▁CFL	-2359
ocial	-2360
▁Foot	-2361
▁coach	-2362
ask	-2363
irt	-2364
▁ty	-2365
▁ser	-2366
allen	-2367
▁richmond	-2368
za	-2369
–4	-2370
▁Sl	-2371
ache	-2372
▁Fin	-2373
▁mil	-2374
▁she	-2375
artin	-2376
▁East	-2377
▁vote	-2378
▁Share	-2379
▁Yards	-2380
▁Michael	-2381
▁represent	-2382
▁Television	-2383
88	-2384
ON	-2385
ny	-2386
▁£	-2387
den	-2388
rie	-2389
ury	-2390
▁80	-2391
▁2.0	-2392
▁east	-2393
▁head	-2394
03	-2395
=27	-2396
alen	-2397
▁Theme	-2398
▁Census	-2399
▁titles	-2400
▁drafted	-2401
▁version	-2402
▁Earnings	-2403
▁language	-2404
▁62	-2405
▁ag	-2406
igan	-2407
▁Pts	-2408
▁rep	-2409
inois	-2410
▁publ	-2411
▁2006?	-2412
▁network	-2413
ustralian	-2414
▁household	-2415
▁championships	-2416
tage	-2417
▁occ	-2418
▁1983	-2419
▁Jack	-2420
▁paul	-2421
▁canada	-2422
▁province	-2423
▁transfer	-2424
ti	-2425
iro	-2426
▁97	-2427
iles	-2428
▁26,	-2429
▁29,	-2430
▁fre	-2431
▁red	-2432
venue	-2433
▁Ship	-2434
▁port	-2435
▁guard	-2436
▁medal	-2437
▁scores	-2438
▁partner	-2439
▁vacancy	-2440
ffiliation	-2441
44	-2442
67	-2443
–3	-2444
alo	-2445
atur	-2446
▁Cle	-2447
▁Lap	-2448
▁get	-2449
▁sem	-2450
lands	-2451
▁1980	-2452
▁Elev	-2453
▁took	-2454
▁Extra	-2455
▁Issue	-2456
▁entries	-2457
BA	-2458
TV	-2459
ca	-2460
-0?	-2461
▁hc	-2462
cial	-2463
▁his	-2464
▁pol	-2465
orgia	-2466
▁1988	-2467
▁Cont	-2468
▁price	-2469
▁track	-2470
▁Builder	-2471
▁Podiums	-2472
▁geelong	-2473
amm	-2474
▁Li	-2475
▁ver	-2476
arian	-2477
▁peak	-2478
▁work	-2479
iminated	-2480
▁friendly	-2481
ots	-2482
qmi	-2483
▁4:	-2484
▁63	-2485
▁La	-2486
▁Str	-2487
▁Black	-2488
▁Coach	-2489
▁Jersey	-2490
▁Results	-2491
▁general	-2492
.?	-2493
▁?	-2494
ief	-2495
orse	-2496
▁Est	-2497
▁Rock	-2498
▁produ	-2499
▁Leading	-2500
▁western	-2501
ns	-2502
▁Ty	-2503
real	-2504
▁18?	-2505
▁bay	-2506
ridge	-2507
▁Miss	-2508
▁jack	-2509
▁went	-2510
▁black	-2511
▁enter	-2512
▁Assists	-2513
ym	-2514
yst	-2515
▁Ag	-2516
▁ne	-2517
isco	-2518
oung	-2519
▁Bel	-2520
▁equ	-2521
▁entr	-2522
atform	-2523
▁ended	-2524
▁guest	-2525
▁Japanese	-2526
azz	-2527
gan	-2528
ows	-2529
▁we	-2530
ajor	-2531
ents	-2532
▁Ser	-2533
▁Road	-2534
▁Role	-2535
▁vill	-2536
▁2012?	-2537
54	-2538
92	-2539
ini	-2540
▁61	-2541
▁Fl	-2542
▁tw	-2543
▁mont	-2544
▁prof	-2545
▁Seats	-2546
▁green	-2547
mission	-2548
▁Floors	-2549
▁Office	-2550
▁Writer	-2551
kw	-2552
-66	-2553
ylv	-2554
▁go	-2555
▁bob	-2556
▁del	-2557
▁den	-2558
▁gen	-2559
▁opp	-2560
ender	-2561
▁1985	-2562
▁Brit	-2563
▁laun	-2564
errari	-2565
▁Green	-2566
▁source	-2567
▁Chinese	-2568
▁Interview	-2569
fc	-2570
ova	-2571
▁90	-2572
▁Am	-2573
onda	-2574
▁End	-2575
▁Val	-2576
imary	-2577
▁Owner	-2578
▁Super	-2579
▁Percentage	-2580
ria	-2581
iger	-2582
▁Bob	-2583
▁Vol	-2584
▁dri	-2585
▁yards	-2586
▁germany	-2587
▁hawthorn	-2588
IS	-2589
▁188	-2590
▁runs	-2591
lement	-2592
▁Company	-2593
▁Australia	-2594
▁australia	-2595
8)	-2596
adio	-2597
▁Tom	-2598
burgh	-2599
▁Roll	-2600
▁happ	-2601
elaide	-2602
▁james	-2603
66	-2604
fa	-2605
▁−	-2606
imb	-2607
ume	-2608
ears	-2609
▁Left	-2610
▁women	-2611
▁period	-2612
▁departure	-2613
wa	-2614
ces	-2615
pend	-2616
romb	-2617
urch	-2618
▁17?	-2619
▁che	-2620
attle	-2621
▁Work	-2622
▁apps	-2623
▁Louis	-2624
▁belong	-2625
▁hcards	-2626
▁latest	-2627
dex	-2628
▁#1	-2629
▁(0	-2630
▁FL	-2631
▁NFL	-2632
▁Nat	-2633
▁los	-2634
▁6–3,	-2635
▁collingwood	-2636
dom	-2637
idd	-2638
ines	-2639
iter	-2640
▁Pol	-2641
▁Red	-2642
▁her	-2643
ample	-2644
ouple	-2645
▁Mens	-2646
▁Ranking	-2647
58	-2648
ci	-2649
abl	-2650
▁fa	-2651
atch	-2652
▁1.0	-2653
▁20?	-2654
▁sun	-2655
miere	-2656
ehicle	-2657
▁picked	-2658
articles	-2659
▁athlete	-2660
59	-2661
-2?	-2662
emb	-2663
▁fc	-2664
▁ol	-2665
▁Sub	-2666
▁Tim	-2667
▁iss	-2668
ourse	-2669
▁rock	-2670
▁Genre	-2671
▁louis	-2672
▁olymp	-2673
billion	-2674
▁england	-2675
64	-2676
▁'	-2677
com	-2678
iet	-2679
opa	-2680
raz	-2681
▁cd	-2682
▁USD	-2683
final	-2684
ussia	-2685
▁4–6,	-2686
▁Pres	-2687
andard	-2688
▁Arena	-2689
▁Joined	-2690
▁michael	-2691
kn	-2692
=13	-2693
ife	-2694
▁28,	-2695
▁Sun	-2696
▁Try	-2697
▁cle	-2698
▁Rate	-2699
▁this	-2700
▁Gross	-2701
▁Highe	-2702
irginia	-2703
▁carlton	-2704
▁Outgoing	-2705
ga	-2706
.19	-2707
500	-2708
alk	-2709
▁SC	-2710
rian	-2711
utes	-2712
▁pres	-2713
▁Christ	-2714
▁carolina	-2715
▁recorded	-2716
▁Touchdowns	-2717
▁Constituency	-2718
we	-2719
olf	-2720
urt	-2721
▁88	-2722
itts	-2723
rook	-2724
site	-2725
pport	-2726
▁Port	-2727
▁tour	-2728
angers	-2729
▁kilda	-2730
▁Losing	-2731
lacement	-2732
▁Elector	-2733
▁General	-2734
▁Regular	-2735
▁playing	-2736
assengers	-2737
▁National	-2738
▁character	-2739
▁footscray	-2740
▁manufacturer	-2741
▁er	-2742
▁187	-2743
▁Bow	-2744
▁Sen	-2745
▁1984	-2746
▁Publ	-2747
▁ends	-2748
▁invol	-2749
arry	-2750
aser	-2751
line	-2752
▁Aug	-2753
▁jim	-2754
▁Penn	-2755
▁Runs	-2756
▁cons	-2757
▁hold	-2758
▁(2011)	-2759
▁christ	-2760
▁fitzroy	-2761
▁sponsor	-2762
ae	-2763
ys	-2764
ump	-2765
▁92	-2766
▁19?	-2767
▁Den	-2768
overn	-2769
▁Vers	-2770
▁2005?	-2771
▁prize	-2772
ichigan	-2773
▁entrant	-2774
Le	-2775
.5?	-2776
▁08	-2777
ived	-2778
omot	-2779
pper	-2780
▁Del	-2781
▁8:00	-2782
irdate	-2783
▁Highest	-2784
▁capital	-2785
▁candidate	-2786
la	-2787
hio	-2788
ink	-2789
iny	-2790
▁7–	-2791
▁FC	-2792
▁tv	-2793
eden	-2794
heel	-2795
▁back	-2796
▁gain	-2797
▁later	-2798
▁Social	-2799
▁Toronto	-2800
▁Official	-2801
awa	-2802
ucky	-2803
▁Mil	-2804
alian	-2805
ctric	-2806
▁down	-2807
▁road	-2808
onnage	-2809
▁princ	-2810
▁ratio	-2811
▁weeks	-2812
eremony	-2813
▁Street	-2814
▁window	-2815
▁Winners	-2816
▁winners	-2817
eet	-2818
oma	-2819
▁(3	-2820
▁Ac	-2821
▁HD	-2822
▁Sm	-2823
rang	-2824
ystem	-2825
▁1976	-2826
▁alex	-2827
▁Peter	-2828
▁japan	-2829
▁ground	-2830
mentator	-2831
▁national	-2832
▁Championships	-2833
90	-2834
arm	-2835
ism	-2836
oto	-2837
put	-2838
▁ii	-2839
▁vs	-2840
▁Web	-2841
▁wash	-2842
▁Teams	-2843
▁lower	-2844
▁happen	-2845
ashington	-2846
▁Replaced	-2847
▁ro	-2848
leet	-2849
wick	-2850
erved	-2851
ights	-2852
▁days	-2853
▁heat	-2854
enness	-2855
▁boston	-2856
▁Density	-2857
▁Character	-2858
hes	-2859
▁Agg	-2860
▁fig	-2861
▁mor	-2862
▁rob	-2863
▁squ	-2864
▁web	-2865
ondon	-2866
▁Hill	-2867
▁Main	-2868
▁lake	-2869
▁poll	-2870
▁side	-2871
League	-2872
veland	-2873
▁Color	-2874
▁races	-2875
ardinal	-2876
▁Studio	-2877
▁family	-2878
▁strokes	-2879
ittsburgh	-2880
▁Carolina	-2881
▁building	-2882
uj	-2883
.18	-2884
1)?	-2885
ady	-2886
yan	-2887
▁77	-2888
▁89	-2889
▁Of	-2890
rick	-2891
▁Mal	-2892
▁mem	-2893
▁mov	-2894
▁net	-2895
known	-2896
▁admin	-2897
▁arena	-2898
ablished	-2899
▁segment	-2900
▁nickname	-2901
43	-2902
77	-2903
FC	-2904
kW	-2905
100	-2906
draw	-2907
▁22?	-2908
▁Bul	-2909
▁Skip	-2910
▁Panel	-2911
▁Moving	-2912
▁Robert	-2913
▁census	-2914
ennessee	-2915
▁earlier	-2916
▁elector	-2917
▁watched	-2918
▁Longitude	-2919
▁Washington	-2920
42	-2921
OT	-2922
ja	-2923
▁$)	-2924
▁es	-2925
▁fm	-2926
▁ir	-2927
▁but	-2928
▁1981	-2929
▁Prom	-2930
▁mike	-2931
ension	-2932
uffalo	-2933
▁2004?	-2934
LA	-2935
▁*	-2936
int	-2937
ned	-2938
▁Cor	-2939
▁Dan	-2940
▁Rob	-2941
▁1978	-2942
▁Land	-2943
▁Vict	-2944
▁kind	-2945
▁2003?	-2946
entucky	-2947
▁france	-2948
▁detroit	-2949
▁leading	-2950
▁Callsign	-2951
▁Latitude	-2952
▁Performer	-2953
▁Represent	-2954
200	-2955
ola	-2956
ura	-2957
ute	-2958
▁99	-2959
▁GT	-2960
▁31,	-2961
weight	-2962
▁Death	-2963
▁fight	-2964
▁local	-2965
▁Womens	-2966
▁quarter	-2967
▁toronto	-2968
▁mountain	-2969
▁washington	-2970
SI	-2971
cm	-2972
oo	-2973
bit	-2974
avis	-2975
ophy	-2976
▁500	-2977
▁acc	-2978
▁ben	-2979
▁cal	-2980
▁lat	-2981
aland	-2982
▁bron	-2983
▁cuts	-2984
ations	-2985
▁Mixed	-2986
ylvania	-2987
▁Scored	-2988
▁American	-2989
▁finished	-2990
▁Authority	-2991
kl	-2992
lb	-2993
.00	-2994
ipp	-2995
▁#2	-2996
ement	-2997
isher	-2998
▁Dates	-2999
chester	-3000
▁Playoffs	-3001
▁contestant	-3002
87	-3003
ival	-3004
mark	-3005
olog	-3006
▁7–6	-3007
▁Che	-3008
▁sim	-3009
▁1982	-3010
▁line	-3011
▁House	-3012
▁Sydney	-3013
▁robert	-3014
▁Captain	-3015
▁Elected	-3016
▁Richmond	-3017
▁distance	-3018
41	-3019
53	-3020
2)?	-3021
oan	-3022
oen	-3023
uro	-3024
win	-3025
west	-3026
year	-3027
▁Age	-3028
▁Nor	-3029
▁Pur	-3030
lanta	-3031
ustin	-3032
▁Wind	-3033
▁Scott	-3034
▁Votes	-3035
▁origin	-3036
▁Evening	-3037
▁victoria	-3038
91	-3039
93	-3040
opp	-3041
▁Sc	-3042
▁250	-3043
▁Fre	-3044
▁pet	-3045
ility	-3046
▁1979	-3047
inence	-3048
istered	-3049
▁career	-3050
▁successor	-3051
Ar	-3052
gy	-3053
▁Ab	-3054
▁ft	-3055
▁ma	-3056
oute	-3057
▁Max	-3058
iller	-3059
▁THAN	-3060
▁left	-3061
▁Price	-3062
▁progr	-3063
▁choice	-3064
▁philadelphia	-3065
aint	-3066
▁bye	-3067
▁mcg	-3068
▁nor	-3069
▁sch	-3070
aster	-3071
▁Jeff	-3072
▁amer	-3073
▁brit	-3074
Junior	-3075
▁James	-3076
allenge	-3077
aserati	-3078
▁Median	-3079
▁fewest	-3080
sylvania	-3081
▁Rebounds	-3082
60	-3083
ls	-3084
-13	-3085
-16	-3086
hab	-3087
ste	-3088
▁TD	-3089
,000	-3090
iami	-3091
▁21?	-3092
▁ann	-3093
▁vot	-3094
▁Alex	-3095
▁gown	-3096
▁color	-3097
▁Opposing	-3098
enz	-3099
–10	-3100
▁0.5	-3101
▁1971	-3102
▁Mike	-3103
▁glen	-3104
▁Debut	-3105
▁chris	-3106
▁occur	-3107
▁spain	-3108
▁Appear	-3109
▁recent	-3110
iy	-3111
–6?	-3112
▁Dr	-3113
▁II	-3114
akes	-3115
apol	-3116
▁Rec	-3117
▁dan	-3118
▁lee	-3119
razil	-3120
▁role	-3121
▁2001?	-3122
▁union	-3123
▁writer	-3124
▁Airdate	-3125
▁Chicago	-3126
▁democratic	-3127
leg	-3128
loy	-3129
▁87	-3130
▁UK	-3131
▁im	-3132
▁($)	-3133
errit	-3134
▁test	-3135
ouston	-3136
omotive	-3137
▁unknown	-3138
▁hometown	-3139
.0%	-3140
men	-3141
▁79	-3142
▁96	-3143
▁em	-3144
▁ke	-3145
aker	-3146
▁192	-3147
▁24?	-3148
▁Pop	-3149
▁ber	-3150
▁hen	-3151
alled	-3152
ators	-3153
ments	-3154
oenix	-3155
thern	-3156
▁Capital	-3157
▁Version	-3158
▁masters	-3159
▁records	-3160
▁regular	-3161
struction	-3162
▁Previous	-3163
▁defensive	-3164
▁commentator	-3165
alf	-3166
arn	-3167
-201	-3168
ours	-3169
udge	-3170
▁Lab	-3171
▁mal	-3172
ennis	-3173
ilers	-3174
ourth	-3175
▁3–6,	-3176
▁Block	-3177
▁Texas	-3178
▁sport	-3179
▁Canada	-3180
ignation	-3181
ountries	-3182
▁ferrari	-3183
▁percent	-3184
▁Swimsuit	-3185
▁previous	-3186
▁Australian	-3187
–7	-3188
adi	-3189
osa	-3190
▁91	-3191
ador	-3192
▁25?	-3193
▁Ver	-3194
▁rec	-3195
▁tur	-3196
▁vol	-3197
ancou	-3198
▁Vill	-3199
▁take	-3200
▁Frank	-3201
ultural	-3202
ancouver	-3203
▁Runners	-3204
▁started	-3205
▁Mountains	-3206
▁interview	-3207
.)	-3208
▁98	-3209
▁Ol	-3210
▁mp	-3211
ials	-3212
▁102	-3213
▁30?	-3214
▁Act	-3215
▁Nov	-3216
▁1964	-3217
▁cast	-3218
▁Enter	-3219
▁Music	-3220
▁extra	-3221
▁peter	-3222
ondition	-3223
▁premier	-3224
▁television	-3225
ala	-3226
ira	-3227
▁84	-3228
▁li	-3229
ella	-3230
hers	-3231
idth	-3232
▁0.2	-3233
▁27?	-3234
▁tra	-3235
allas	-3236
worth	-3237
▁1970	-3238
regate	-3239
▁2002?	-3240
▁music	-3241
▁scott	-3242
▁particip	-3243
St	-3244
▁09	-3245
iven	-3246
▁23?	-3247
▁Roy	-3248
▁dem	-3249
▁don	-3250
▁1977	-3251
▁Fall	-3252
▁tack	-3253
▁Draft	-3254
▁golds	-3255
outhern	-3256
▁europe	-3257
▁California	-3258
4)?	-3259
oon	-3260
vil	-3261
▁07	-3262
ined	-3263
olen	-3264
pect	-3265
play	-3266
▁Ben	-3267
▁Sch	-3268
▁van	-3269
beral	-3270
stell	-3271
▁Serv	-3272
▁1999?	-3273
▁Progr	-3274
▁(2010)	-3275
▁Episodes	-3276
%,	-3277
-17	-3278
eld	-3279
oft	-3280
ott	-3281
▁95	-3282
kins	-3283
▁Jim	-3284
▁att	-3285
▁cas	-3286
▁que	-3287
conom	-3288
ories	-3289
oseph	-3290
unity	-3291
▁Gain	-3292
▁Tour	-3293
▁land	-3294
▁Produ	-3295
ombined	-3296
▁received	-3297
stellation	-3298
▁Broadcast	-3299
▁republican	-3300
▁appearances	-3301
ao	-3302
aki	-3303
olo	-3304
▁lu	-3305
▁Met	-3306
▁cos	-3307
▁har	-3308
▁non	-3309
aylor	-3310
ected	-3311
▁2000?	-3312
▁Chris	-3313
▁train	-3314
ancisco	-3315
▁Change	-3316
▁floors	-3317
▁totals	-3318
▁Mission	-3319
▁Branding	-3320
▁completed	-3321
▁translation	-3322
94	-3323
BC	-3324
hl	-3325
-08	-3326
een	-3327
acht	-3328
anes	-3329
aren	-3330
ific	-3331
▁Mor	-3332
illic	-3333
▁King	-3334
▁nick	-3335
igital	-3336
▁Princ	-3337
▁Water	-3338
yrillic	-3339
▁Island	-3340
.7%	-3341
▁86	-3342
head	-3343
▁Gar	-3344
▁add	-3345
▁ang	-3346
▁bow	-3347
▁fat	-3348
▁gar	-3349
▁sen	-3350
▁tri	-3351
▁Cast	-3352
▁panel	-3353
▁smith	-3354
▁(2009)	-3355
▁French	-3356
▁mascot	-3357
▁happened	-3358
▁junction	-3359
▁institution	-3360
52	-3361
ms	-3362
▁—	-3363
-3?	-3364
gar	-3365
ren	-3366
▁94	-3367
▁Ke	-3368
▁gl	-3369
/200	-3370
resp	-3371
▁old	-3372
alley	-3373
elson	-3374
iants	-3375
limin	-3376
▁feet	-3377
▁miss	-3378
monton	-3379
▁Coast	-3380
▁Steve	-3381
▁McCain	-3382
▁Rounds	-3383
▁Thomas	-3384
herlands	-3385
▁British	-3386
▁England	-3387
▁evening	-3388
▁forward	-3389
▁Adelaide	-3390
▁authority	-3391
51	-3392
ips	-3393
–1,	-3394
▁Bo	-3395
▁cy	-3396
▁ze	-3397
ipal	-3398
▁193	-3399
▁Big	-3400
▁FOR	-3401
▁Pil	-3402
▁Sim	-3403
▁roy	-3404
0,000	-3405
ified	-3406
inyin	-3407
▁1974	-3408
▁free	-3409
▁Inter	-3410
▁Value	-3411
▁inter	-3412
▁texas	-3413
veloper	-3414
▁support	-3415
▁diameter	-3416
▁earnings	-3417
▁featured	-3418
▁montreal	-3419
▁replaced	-3420
▁Candidate	-3421
▁positions	-3422
-05	-3423
aug	-3424
cos	-3425
ila	-3426
udi	-3427
▁Sn	-3428
▁id	-3429
▁my	-3430
▁ur	-3431
aine	-3432
ivil	-3433
pool	-3434
▁Leg	-3435
▁rem	-3436
▁tre	-3437
inson	-3438
ocket	-3439
▁Mary	-3440
▁skip	-3441
▁Local	-3442
respond	-3443
▁arrang	-3444
▁english	-3445
▁swimsuit	-3446
At	-3447
FA	-3448
–8	-3449
ees	-3450
▁81	-3451
▁ML	-3452
amer	-3453
fect	-3454
last	-3455
rizz	-3456
▁125	-3457
▁als	-3458
▁bru	-3459
▁law	-3460
▁mad	-3461
▁use	-3462
orial	-3463
▁1966	-3464
▁7:00	-3465
▁penn	-3466
▁roll	-3467
apolis	-3468
▁1000)	-3469
▁honda	-3470
elected	-3471
▁Career	-3472
▁Reason	-3473
▁compet	-3474
▁Nominee	-3475
▁Species	-3476
▁opposing	-3477
estination	-3478
▁correspond	-3479
▁qualifying	-3480
OS	-3481
-75	-3482
.0?	-3483
.1%	-3484
oli	-3485
por	-3486
ras	-3487
ices	-3488
iego	-3489
▁101	-3490
▁28?	-3491
▁Und	-3492
▁bul	-3493
▁led	-3494
▁mer	-3495
▁pur	-3496
ports	-3497
▁2–6,	-3498
▁also	-3499
usical	-3500
▁10:00	-3501
▁1998?	-3502
▁frank	-3503
▁poles	-3504
▁George	-3505
▁placed	-3506
▁Charles	-3507
▁florida	-3508
▁Visiting	-3509
▁qualification	-3510
acy	-3511
▁ST	-3512
ible	-3513
sqmi	-3514
▁Att	-3515
▁Pct	-3516
▁inf	-3517
▁pal	-3518
▁rfc	-3519
▁sec	-3520
craft	-3521
lando	-3522
▁Poll	-3523
▁sand	-3524
▁will	-3525
▁prior	-3526
▁steve	-3527
Country	-3528
cotland	-3529
ownship	-3530
▁awards	-3531
▁island	-3532
▁thomas	-3533
▁classic	-3534
▁silvers	-3535
▁conceded	-3536
GC	-3537
–5	-3538
aro	-3539
ien	-3540
uan	-3541
▁93	-3542
▁AT	-3543
▁av	-3544
echn	-3545
ette	-3546
yric	-3547
▁105	-3548
▁106	-3549
▁Ill	-3550
▁rel	-3551
adian	-3552
alent	-3553
tonio	-3554
▁1967	-3555
▁Caps	-3556
▁cred	-3557
▁given	-3558
▁Florida	-3559
▁retired	-3560
▁california	-3561
▁municipality	-3562
sp	-3563
aco	-3564
ogr	-3565
uke	-3566
▁85	-3567
▁iv	-3568
ayne	-3569
▁186	-3570
▁Vac	-3571
▁gra	-3572
▁Bush	-3573
▁slam	-3574
ickoff	-3575
▁level	-3576
▁super	-3577
▁Geelong	-3578
▁angeles	-3579
▁Platform	-3580
▁Minnesota	-3581
isplacement	-3582
oz	-3583
-07	-3584
.22	-3585
.9%	-3586
ius	-3587
rey	-3588
▁0:	-3589
▁83	-3590
▁Ro	-3591
fold	-3592
ient	-3593
lers	-3594
▁26?	-3595
▁Mem	-3596
▁Pet	-3597
▁ray	-3598
drawn	-3599
ocess	-3600
umbia	-3601
▁1973	-3602
▁Unit	-3603
ingham	-3604
▁Train	-3605
▁names	-3606
▁theme	-3607
uckland	-3608
▁called	-3609
▁Doubles	-3610
▁vehicle	-3611
▁Diameter	-3612
▁Champions	-3613
▁President	-3614
▁Semifinal	-3615
▁Affiliation	-3616
bc	-3617
án	-3618
-03	-3619
-09	-3620
9)?	-3621
ato	-3622
▁Ir	-3623
ardo	-3624
ario	-3625
cats	-3626
eder	-3627
▁age	-3628
▁arg	-3629
▁sam	-3630
imate	-3631
immer	-3632
▁main	-3633
▁seat	-3634
▁wood	-3635
▁React	-3636
▁Torque	-3637
▁sydney	-3638
▁tackle	-3639
issioned	-3640
▁License	-3641
▁Elevation	-3642
▁minnesota	-3643
-4?	-3644
alc	-3645
iff	-3646
oug	-3647
▁Rd	-3648
▁ow	-3649
ampa	-3650
mitt	-3651
▁1-0	-3652
▁1.8	-3653
▁400	-3654
▁jan	-3655
ahoma	-3656
eding	-3657
ackage	-3658
▁Obama	-3659
▁Olymp	-3660
amilton	-3661
▁Boston	-3662
affected	-3663
▁Tonnage	-3664
▁Western	-3665
istrative	-3666
82	-3667
IC	-3668
ba	-3669
.6%	-3670
/09	-3671
well	-3672
▁(8)	-3673
▁Ann	-3674
▁Don	-3675
▁Tra	-3676
▁agg	-3677
▁dam	-3678
acher	-3679
ional	-3680
▁1965	-3681
▁Nick	-3682
▁gross	-3683
▁Starts	-3684
▁Football	-3685
▁Hawthorn	-3686
▁williams	-3687
-14	-3688
avy	-3689
car	-3690
erk	-3691
ima	-3692
▁Ma	-3693
▁Up	-3694
▁mi	-3695
lies	-3696
ques	-3697
rows	-3698
▁Har	-3699
▁avg	-3700
▁bor	-3701
▁war	-3702
achus	-3703
▁Lake	-3704
▁Show	-3705
▁mens	-3706
▁1996?	-3707
▁Guest	-3708
klahoma	-3709
leeding	-3710
▁athlet	-3711
▁martin	-3712
▁Detroit	-3713
▁electric	-3714
aha	-3715
irm	-3716
enny	-3717
▁Mag	-3718
▁1969	-3719
▁1975	-3720
▁Jazz	-3721
▁byes	-3722
depend	-3723
▁month	-3724
aturday	-3725
▁Streak	-3726
ervative	-3727
▁Angeles	-3728
Attendance	-3729
▁Eliminated	-3730
▁Prominence	-3731
ür	-3732
-22	-3733
3)?	-3734
aph	-3735
ops	-3736
utt	-3737
–12	-3738
▁sk	-3739
▁107	-3740
▁190	-3741
▁8.7	-3742
▁joe	-3743
▁1968	-3744
▁Ball	-3745
▁Gown	-3746
▁Mont	-3747
▁Tues	-3748
▁come	-3749
ferrie	-3750
▁clubs	-3751
▁italy	-3752
▁major	-3753
▁africa	-3754
rizzlies	-3755
▁Georgia	-3756
▁Singles	-3757
▁actress	-3758
▁princes	-3759
▁Conceded	-3760
▁Duration	-3761
▁latitude	-3762
▁premiere	-3763
▁countries	-3764
▁description	-3765
▁performance	-3766
▁Representative	-3767
fr	-3768
-06	-3769
-65	-3770
.66	-3771
oni	-3772
oys	-3773
pec	-3774
–0?	-3775
▁00	-3776
▁82	-3777
imal	-3778
▁1.9	-3779
▁191	-3780
▁Pal	-3781
▁Wil	-3782
▁aut	-3783
▁fif	-3784
▁try	-3785
Final	-3786
brity	-3787
place	-3788
▁1961	-3789
▁9:00	-3790
▁Semi	-3791
▁Wood	-3792
▁elev	-3793
▁sant	-3794
▁exact	-3795
▁issue	-3796
▁right	-3797
▁During	-3798
▁george	-3799
erritory	-3800
▁Entered	-3801
▁billion	-3802
▁kingdom	-3803
▁meaning	-3804
▁minutes	-3805
▁nations	-3806
▁Illinois	-3807
▁maserati	-3808
.35	-3809
.3?	-3810
.4?	-3811
Art	-3812
isb	-3813
vis	-3814
zes	-3815
▁ev	-3816
amie	-3817
clud	-3818
etts	-3819
gary	-3820
raig	-3821
▁1.4	-3822
▁103	-3823
▁Bor	-3824
▁Tur	-3825
▁asc	-3826
▁ill	-3827
▁its	-3828
▁rom	-3829
▁row	-3830
emale	-3831
leans	-3832
▁AAAA	-3833
▁Blue	-3834
▁Carl	-3835
▁Greg	-3836
▁Weeks	-3837
▁range	-3838
▁Launch	-3839
▁Manner	-3840
▁Others	-3841
▁single	-3842
elebrity	-3843
▁charles	-3844
▁greatest	-3845
▁standard	-3846
▁Catalogue	-3847
▁households	-3848
▁pittsburgh	-3849
▁Philadelphia	-3850
CE	-3851
ux	-3852
=21	-3853
aji	-3854
ean	-3855
anic	-3856
aper	-3857
▁1.2	-3858
▁29?	-3859
▁Bay	-3860
▁NGC	-3861
▁She	-3862
▁gir	-3863
▁mex	-3864
agles	-3865
▁1960	-3866
▁6–2,	-3867
▁Matt	-3868
▁dire	-3869
aiders	-3870
▁Period	-3871
▁opened	-3872
▁torque	-3873
▁womens	-3874
▁Manager	-3875
▁Seasons	-3876
▁olympic	-3877
▁Opposition	-3878
63	-3879
AD	-3880
ME	-3881
TC	-3882
fm	-3883
-01	-3884
-04	-3885
.8%	-3886
riz	-3887
uki	-3888
▁sa	-3889
▁sf	-3890
▁8.8	-3891
▁Ess	-3892
▁Joe	-3893
▁Wed	-3894
▁mpg	-3895
athan	-3896
riots	-3897
▁1950	-3898
▁Bike	-3899
▁same	-3900
▁writ	-3901
▁Chief	-3902
estival	-3903
▁joined	-3904
▁parish	-3905
▁starts	-3906
assachus	-3907
▁Success	-3908
▁outgoing	-3909
assachusetts	-3910
▁Performance	-3911
▁arrangement	-3912
EO	-3913
-15	-3914
-21	-3915
.1?	-3916
.20	-3917
▁06	-3918
▁Do	-3919
hern	-3920
ream	-3921
▁1-1	-3922
▁jul	-3923
ishop	-3924
▁1972	-3925
arters	-3926
nesday	-3927
▁debut	-3928
▁water	-3929
▁German	-3930
▁square	-3931
▁Richard	-3932
▁richard	-3933
▁performer	-3934
▁Appearances	-3935
79	-3936
-29	-3937
.2%	-3938
bre	-3939
cel	-3940
owa	-3941
urg	-3942
▁+2	-3943
phen	-3944
reek	-3945
trol	-3946
ukee	-3947
▁0-1	-3948
▁0–1	-3949
▁Bas	-3950
igers	-3951
istan	-3952
▁Body	-3953
▁Prof	-3954
▁hand	-3955
▁stud	-3956
titude	-3957
▁1997?	-3958
▁Quest	-3959
▁White	-3960
▁found	-3961
▁radio	-3962
▁Jockey	-3963
▁jersey	-3964
▁Germany	-3965
▁Revenue	-3966
▁exactly	-3967
▁Kentucky	-3968
▁quantity	-3969
▁resulted	-3970
▁longitude	-3971
/1	-3972
Up	-3973
aya	-3974
las	-3975
▁sn	-3976
idge	-3977
uman	-3978
▁ran	-3979
▁tak	-3980
trodu	-3981
▁Free	-3982
▁mart	-3983
▁sele	-3984
atting	-3985
ercial	-3986
ursday	-3987
▁Ratio	-3988
▁genre	-3989
▁Indian	-3990
▁summer	-3991
▁Service	-3992
▁involved	-3993
71	-3994
ji	-3995
.06	-3996
.4%	-3997
7)?	-3998
ges	-3999
han	-4000
mit	-4001
▁kW	-4002
2000	-4003
bury	-4004
icks	-4005
immy	-4006
orea	-4007
rell	-4008
rett	-4009
ront	-4010
rude	-4011
▁1.5	-4012
▁Acc	-4013
▁Lee	-4014
▁Sam	-4015
▁kar	-4016
▁wil	-4017
arren	-4018
itzer	-4019
shire	-4020
stein	-4021
▁Prod	-4022
▁arri	-4023
▁magn	-4024
▁meas	-4025
▁real	-4026
▁tony	-4027
incinn	-4028
ustria	-4029
waukee	-4030
▁Jones	-4031
▁Latin	-4032
▁jones	-4033
▁mixed	-4034
unswick	-4035
▁Family	-4036
▁Gender	-4037
▁decile	-4038
▁finale	-4039
▁system	-4040
▁Carlton	-4041
▁Edition	-4042
▁Percent	-4043
▁zealand	-4044
incinnati	-4045
▁Nominated	-4046
▁semifinal	-4047
▁submission	-4048
▁touchdowns	-4049
70	-4050
89	-4051
▁°	-4052
.02	-4053
5)?	-4054
anz	-4055
ero	-4056
osc	-4057
▁CD	-4058
▁Id	-4059
▁ps	-4060
▁te	-4061
ives	-4062
rest	-4063
▁(6)	-4064
▁Not	-4065
▁Oct	-4066
▁USA	-4067
▁Fleet	-4068
▁brand	-4069
▁young	-4070
overnor	-4071
▁Church	-4072
▁France	-4073
▁edition	-4074
▁rangers	-4075
▁European	-4076
▁Winnings	-4077
▁Socialist	-4078
▁Pennsylvania	-4079
.,	-4080
69	-4081
84	-4082
bl	-4083
ii	-4084
uy	-4085
aka	-4086
isa	-4087
–1?	-4088
anda	-4089
load	-4090
utch	-4091
▁0.7	-4092
▁6–7	-4093
▁Equ	-4094
▁two	-4095
heast	-4096
ledon	-4097
ordan	-4098
▁1958	-4099
▁8:30	-4100
▁Make	-4101
▁Size	-4102
▁carl	-4103
▁phil	-4104
ternet	-4105
▁Horse	-4106
▁Index	-4107
▁above	-4108
▁owner	-4109
▁white	-4110
itional	-4111
opposed	-4112
▁Couple	-4113
▁Market	-4114
▁finals	-4115
▁indian	-4116
▁losing	-4117
imbledon	-4118
▁Primary	-4119
▁central	-4120
▁johnson	-4121
▁podiums	-4122
▁Launched	-4123
▁electorates	-4124
▁administered	-4125
▁constituency	-4126
.21	-4127
ION	-4128
cha	-4129
nic	-4130
rel	-4131
una	-4132
▁Kn	-4133
-199	-4134
anet	-4135
ells	-4136
oven	-4137
▁110	-4138
▁Bru	-4139
▁War	-4140
arget	-4141
▁Line	-4142
▁greg	-4143
amming	-4144
▁Broad	-4145
▁Cover	-4146
▁Kerry	-4147
▁great	-4148
▁hawks	-4149
▁shown	-4150
ailable	-4151
▁Finals	-4152
▁centre	-4153
▁leader	-4154
▁places	-4155
▁Orlando	-4156
▁address	-4157
▁present	-4158
▁primary	-4159
▁Essendon	-4160
▁football	-4161
▁illinois	-4162
▁Passengers	-4163
:3	-4164
uz	-4165
.25	-4166
cle	-4167
eds	-4168
kov	-4169
pet	-4170
▁Ep	-4171
ffic	-4172
itch	-4173
▁3-0	-4174
▁GEO	-4175
▁Hen	-4176
▁Que	-4177
▁mcc	-4178
▁sur	-4179
amaha	-4180
habit	-4181
imore	-4182
ittle	-4183
lotte	-4184
thony	-4185
▁1959	-4186
▁Tyre	-4187
▁caps	-4188
▁china	-4189
▁clark	-4190
▁windy	-4191
ardinia	-4192
ization	-4193
00000000	-4194
quarters	-4195
▁Central	-4196
▁entered	-4197
▁Cardinal	-4198
▁playoffs	-4199
▁Footscray	-4200
▁Collingwood	-4201
72	-4202
73	-4203
bt	-4204
hi	-4205
-76	-4206
ids	-4207
ker	-4208
lav	-4209
odd	-4210
wan	-4211
▁01	-4212
▁6:	-4213
▁We	-4214
▁aa	-4215
▁ob	-4216
▁qf	-4217
adem	-4218
illa	-4219
ourt	-4220
▁2.5	-4221
▁NBA	-4222
▁pan	-4223
▁sky	-4224
▁band	-4225
▁been	-4226
▁came	-4227
▁coll	-4228
▁inst	-4229
▁prom	-4230
▁tall	-4231
▁view	-4232
ailway	-4233
public	-4234
▁movie	-4235
▁ranks	-4236
borough	-4237
▁Africa	-4238
▁Pinyin	-4239
▁deaths	-4240
Articles	-4241
▁Italian	-4242
▁atlanta	-4243
▁georgia	-4244
habitants	-4245
▁Virginia	-4246
GA	-4247
-20	-4248
MHz	-4249
par	-4250
rop	-4251
▁Em	-4252
heim	-4253
icts	-4254
mann	-4255
▁0.6	-4256
▁113	-4257
▁Kar	-4258
▁Law	-4259
▁flo	-4260
▁jac	-4261
▁kil	-4262
▁ren	-4263
abama	-4264
ouble	-4265
▁Ohio	-4266
▁Sign	-4267
▁Will	-4268
▁camp	-4269
▁Medal	-4270
▁Names	-4271
▁Perth	-4272
▁voice	-4273
▁Albert	-4274
▁Course	-4275
▁Income	-4276
Ceremony	-4277
altimore	-4278
▁Johnson	-4279
▁Developer	-4280
▁eliminated	-4281
ED	-4282
GS	-4283
ua	-4284
-02	-4285
-1)	-4286
6)?	-4287
8)?	-4288
uer	-4289
–11	-4290
–13	-4291
▁05	-4292
▁AN	-4293
▁cc	-4294
▁di	-4295
▁ep	-4296
ello	-4297
ounc	-4298
▁31?	-4299
▁Low	-4300
▁Mac	-4301
▁Mad	-4302
▁Sab	-4303
▁bus	-4304
▁eth	-4305
velop	-4306
▁1956	-4307
▁7:30	-4308
▁blue	-4309
▁dave	-4310
▁unit	-4311
estant	-4312
▁2013?	-4313
▁Admin	-4314
▁Asian	-4315
▁Right	-4316
▁Smith	-4317
▁Wheel	-4318
▁Young	-4319
▁Martin	-4320
▁includ	-4321
▁launch	-4322
▁thromb	-4323
▁Natural	-4324
▁members	-4325
▁Williams	-4326
▁performed	-4327
▁vancouver	-4328
61	-4329
ET	-4330
Sh	-4331
no	-4332
-6?	-4333
.23	-4334
.95	-4335
/12	-4336
ika	-4337
och	-4338
utr	-4339
▁MC	-4340
elly	-4341
iano	-4342
oser	-4343
▁(2)	-4344
▁Non	-4345
▁Tre	-4346
▁map	-4347
anger	-4348
igion	-4349
ivery	-4350
stone	-4351
ttawa	-4352
▁Bowl	-4353
▁Span	-4354
▁make	-4355
▁sett	-4356
▁wing	-4357
action	-4358
ampton	-4359
mitted	-4360
▁Proto	-4361
▁Sales	-4362
▁river	-4363
itation	-4364
▁mexico	-4365
▁motors	-4366
anderers	-4367
▁ratings	-4368
itzerland	-4369
▁Saturday	-4370
▁duration	-4371
▁ascension	-4372
▁champions	-4373
▁unaffected	-4374
▁affiliation	-4375
.3%	-4376
/11	-4377
0)?	-4378
ert	-4379
irk	-4380
ito	-4381
pro	-4382
▁3-	-4383
▁5–	-4384
▁da	-4385
anch	-4386
chie	-4387
▁(1)	-4388
▁Int	-4389
▁jun	-4390
Cards	-4391
aries	-4392
▁1955	-4393
▁Camp	-4394
▁Sett	-4395
▁Ties	-4396
▁matt	-4397
▁requ	-4398
idence	-4399
opular	-4400
▁1993?	-4401
▁index	-4402
olution	-4403
▁moving	-4404
▁sweden	-4405
▁Fitzroy	-4406
▁bronzes	-4407
▁raceway	-4408
▁schools	-4409
istration	-4410
▁Auckland	-4411
▁Cyrillic	-4412
▁Victoria	-4413
▁aircraft	-4414
▁american	-4415
▁Centerfold	-4416
.5%	-4417
udd	-4418
unc	-4419
▁ny	-4420
▁ts	-4421
ites	-4422
otus	-4423
yota	-4424
▁2-1	-4425
▁9.4	-4426
▁Mer	-4427
▁PLA	-4428
▁any	-4429
▁mac	-4430
▁pay	-4431
▁sal	-4432
▁ton	-4433
iddle	-4434
riday	-4435
▁Post	-4436
▁Russ	-4437
▁ford	-4438
▁distr	-4439
▁style	-4440
▁Snatch	-4441
▁albert	-4442
▁couple	-4443
▁french	-4444
▁giants	-4445
▁website	-4446
▁Finalist	-4447
▁Michigan	-4448
▁Constellation	-4449
83	-4450
In	-4451
UK	-4452
da	-4453
hp	-4454
tv	-4455
-64	-4456
akh	-4457
die	-4458
▁$1	-4459
▁IN	-4460
▁ca	-4461
▁gt	-4462
argo	-4463
ivid	-4464
–199	-4465
▁2-0	-4466
▁41,	-4467
▁9.6	-4468
▁Def	-4469
▁ham	-4470
▁lab	-4471
▁1963	-4472
▁1:00	-4473
▁Band	-4474
▁Copa	-4475
▁half	-4476
▁info	-4477
▁nort	-4478
akland	-4479
oberts	-4480
▁Dance	-4481
▁block	-4482
▁Andrew	-4483
▁Opened	-4484
▁kansas	-4485
▁russia	-4486
▁Masters	-4487
▁Placing	-4488
▁virginia	-4489
▁Condition	-4490
▁Tennessee	-4491
▁locomotive	-4492
65	-4493
ez	-4494
.6?	-4495
bar	-4496
cia	-4497
haw	-4498
▁Er	-4499
▁LO	-4500
▁NC	-4501
ando	-4502
ista	-4503
liga	-4504
rban	-4505
▁1-2	-4506
▁150	-4507
▁Ber	-4508
▁Com	-4509
▁MLS	-4510
▁WAS	-4511
olong	-4512
oscow	-4513
▁5:00	-4514
▁Born	-4515
▁Down	-4516
▁rome	-4517
enault	-4518
isbane	-4519
rombin	-4520
▁Clubs	-4521
▁WHich	-4522
▁acres	-4523
▁asian	-4524
▁horse	-4525
▁three	-4526
▁using	-4527
olonged	-4528
▁Author	-4529
▁Depart	-4530
▁Kansas	-4531
▁Volume	-4532
▁active	-4533
▁course	-4534
▁market	-4535
▁Liberal	-4536
▁buffalo	-4537
▁subject	-4538
othrombin	-4539
▁Maryland	-4540
▁produced	-4541
ić	-4542
ui	-4543
for	-4544
mar	-4545
rad	-4546
ted	-4547
uct	-4548
▁dn	-4549
Spec	-4550
anny	-4551
iang	-4552
rove	-4553
▁112	-4554
▁Tri	-4555
▁bas	-4556
akers	-4557
aysia	-4558
board	-4559
mploy	-4560
omest	-4561
▁1000	-4562
▁Cons	-4563
▁cost	-4564
▁fifa	-4565
▁jeff	-4566
▁Style	-4567
▁cache	-4568
ocessor	-4569
▁Golden	-4570
▁earned	-4571
▁hCards	-4572
▁seated	-4573
troduced	-4574
▁Premier	-4575
▁Rockets	-4576
▁builder	-4577
▁musical	-4578
▁phoenix	-4579
▁michigan	-4580
▁Electorate	-4581
▁established	-4582
SP	-4583
ih	-4584
sa	-4585
▁€	-4586
.7?	-4587
ORE	-4588
ali	-4589
aut	-4590
ipe	-4591
olm	-4592
rpm	-4593
–2?	-4594
▁Tw	-4595
▁du	-4596
alth	-4597
aron	-4598
gium	-4599
ised	-4600
▁6–2	-4601
▁6–3	-4602
▁Ham	-4603
▁Jul	-4604
▁Spr	-4605
▁Wat	-4606
▁rid	-4607
▁sol	-4608
athon	-4609
empts	-4610
eslot	-4611
etail	-4612
icker	-4613
inary	-4614
odern	-4615
urtis	-4616
▁1951	-4617
▁1954	-4618
▁Phil	-4619
▁Vote	-4620
▁star	-4621
▁ties	-4622
adiens	-4623
argers	-4624
▁1994?	-4625
▁Level	-4626
▁arden	-4627
▁marri	-4628
▁route	-4629
▁sales	-4630
▁Senior	-4631
▁london	-4632
▁public	-4633
lination	-4634
▁Democrat	-4635
▁Junction	-4636
▁cleveland	-4637
74	-4638
GE	-4639
MS	-4640
Re	-4641
-49	-4642
.2?	-4643
806	-4644
lad	-4645
▁PM	-4646
▁SM	-4647
band	-4648
bers	-4649
ided	-4650
ippi	-4651
ould	-4652
ouri	-4653
–200	-4654
▁0.8	-4655
▁104	-4656
▁6–4	-4657
▁8.4	-4658
▁Bur	-4659
▁Cas	-4660
▁Rel	-4661
▁mel	-4662
▁usa	-4663
-68=2	-4664
aints	-4665
brevi	-4666
ilipp	-4667
illed	-4668
▁(10)	-4669
▁Airc	-4670
▁Back	-4671
▁Larg	-4672
▁Sant	-4673
▁fred	-4674
▁post	-4675
▁sqmi	-4676
▁stan	-4677
ffield	-4678
ominal	-4679
▁Count	-4680
▁River	-4681
issippi	-4682
▁Origin	-4683
liminary	-4684
▁Formula	-4685
▁awarded	-4686
▁Aircraft	-4687
ricultural	-4688
▁Cleveland	-4689
▁Grizzlies	-4690
▁passengers	-4691
:2	-4692
CL	-4693
OL	-4694
vo	-4695
-19	-4696
ami	-4697
ski	-4698
▁7:	-4699
▁TO	-4700
▁kg	-4701
▁uk	-4702
alom	-4703
bell	-4704
hill	-4705
oger	-4706
olph	-4707
sets	-4708
▁Dam	-4709
▁dep	-4710
▁der	-4711
▁nov	-4712
ached	-4713
onday	-4714
▁6–1,	-4715
▁Glen	-4716
▁Hard	-4717
▁Took	-4718
▁gary	-4719
▁pass	-4720
▁semi	-4721
ground	-4722
lantic	-4723
ouncil	-4724
ungary	-4725
▁Lyric	-4726
▁Works	-4727
ividual	-4728
▁Daniel	-4729
▁London	-4730
▁andrew	-4731
▁figure	-4732
▁hosted	-4733
▁trophy	-4734
▁Content	-4735
▁Wickets	-4736
▁formula	-4737
▁wickets	-4738
▁Producer	-4739
▁numbered	-4740
▁platform	-4741
▁Established	-4742
▁conservative	-4743
-24	-4744
lie	-4745
lyn	-4746
umn	-4747
▁"1	-4748
▁lp	-4749
▁na	-4750
▁pa	-4751
anne	-4752
flix	-4753
inas	-4754
▁Cal	-4755
▁One	-4756
▁Ray	-4757
▁jon	-4758
▁pos	-4759
apore	-4760
ishes	-4761
itary	-4762
occer	-4763
onsin	-4764
press	-4765
▁2014	-4766
▁Crew	-4767
▁Feat	-4768
▁Most	-4769
▁ball	-4770
▁fuel	-4771
▁item	-4772
▁only	-4773
▁span	-4774
▁1987?	-4775
▁1992?	-4776
▁Brown	-4777
▁Davis	-4778
▁miles	-4779
▁sSpec	-4780
▁Athlet	-4781
▁Indust	-4782
▁Motors	-4783
▁edward	-4784
▁median	-4785
isconsin	-4786
▁Package	-4787
▁Ratings	-4788
▁receive	-4789
▁accident	-4790
▁Successor	-4791
▁aggregate	-4792
▁elevation	-4793
▁mountains	-4794
▁glenferrie	-4795
▁netherlands	-4796
mo	-4797
sk	-4798
▁•	-4799
afe	-4800
afs	-4801
oln	-4802
vey	-4803
▁bu	-4804
▁hy	-4805
stad	-4806
uder	-4807
wich	-4808
▁(12	-4809
▁(18	-4810
▁1.3	-4811
▁108	-4812
▁120	-4813
▁3-2	-4814
▁300	-4815
▁8.9	-4816
▁Gra	-4817
▁cre	-4818
▁far	-4819
▁spr	-4820
apsed	-4821
ature	-4822
ewart	-4823
ierre	-4824
▁1943	-4825
▁Dave	-4826
▁Hand	-4827
▁mary	-4828
▁none	-4829
▁stem	-4830
ildren	-4831
itcher	-4832
lastin	-4833
person	-4834
▁Bonus	-4835
▁Roman	-4836
▁coast	-4837
▁hours	-4838
▁urban	-4839
anthers	-4840
▁Brazil	-4841
▁Fourth	-4842
▁Medals	-4843
▁oilers	-4844
▁sports	-4845
▁weekly	-4846
aturated	-4847
▁figures	-4848
▁houston	-4849
▁Operator	-4850
▁Reserved	-4851
▁edmonton	-4852
AC	-4853
II	-4854
VD	-4855
.9?	-4856
cus	-4857
don	-4858
iac	-4859
ify	-4860
ros	-4861
▁jo	-4862
▁mo	-4863
▁ut	-4864
Laps	-4865
acks	-4866
atre	-4867
ideo	-4868
inch	-4869
ipts	-4870
thur	-4871
town	-4872
▁(7)	-4873
▁122	-4874
▁3.5	-4875
▁54,	-4876
▁Ark	-4877
▁FCC	-4878
▁RFC	-4879
▁Tro	-4880
▁Yes	-4881
▁brm	-4882
▁kim	-4883
▁lim	-4884
▁vel	-4885
essel	-4886
ifier	-4887
liter	-4888
▁1953	-4889
▁Ford	-4890
▁Meet	-4891
▁Nort	-4892
▁Pict	-4893
▁Save	-4894
▁stat	-4895
▁wild	-4896
alcons	-4897
▁Brand	-4898
▁Shirt	-4899
▁judge	-4900
▁since	-4901
omestic	-4902
▁Edward	-4903
▁dallas	-4904
▁others	-4905
oplastin	-4906
standing	-4907
▁Buffalo	-4908
▁Kickoff	-4909
▁Vacator	-4910
▁example	-4911
▁running	-4912
imination	-4913
▁Canadian	-4914
▁Challenge	-4915
▁francisco	-4916
▁withdrawn	-4917
▁Construction	-4918
▁thromboplastin	-4919
BN	-4920
MW	-4921
RE	-4922
RT	-4923
▁×	-4924
.44	-4925
.73	-4926
amo	-4927
ias	-4928
ift	-4929
mhz	-4930
ois	-4931
roe	-4932
tre	-4933
uzz	-4934
▁$2	-4935
▁TE	-4936
ocal	-4937
thew	-4938
vate	-4939
zech	-4940
▁+1:	-4941
▁117	-4942
▁140	-4943
▁185	-4944
▁45,	-4945
▁Kit	-4946
▁Ski	-4947
▁cla	-4948
▁pen	-4949
▁ros	-4950
▁ter	-4951
-70=2	-4952
-71=2	-4953
ology	-4954
ooter	-4955
ordon	-4956
rowth	-4957
▁7–5,	-4958
▁9:30	-4959
▁bank	-4960
▁body	-4961
▁lind	-4962
▁ohio	-4963
ikings	-4964
legate	-4965
▁1983?	-4966
▁Clark	-4967
▁Crude	-4968
▁Italy	-4969
▁Purse	-4970
▁below	-4971
▁davis	-4972
▁motor	-4973
▁night	-4974
▁Assets	-4975
▁Weekly	-4976
▁junior	-4977
▁Mintage	-4978
▁Raceway	-4979
▁Rangers	-4980
▁community	-4981
▁Settlement	-4982
▁Description	-4983
$)	-4984
/4	-4985
Ch	-4986
gs	-4987
ye	-4988
-23	-4989
GER	-4990
ape	-4991
esh	-4992
gon	-4993
igi	-4994
kin	-4995
nik	-4996
owb	-4997
ued	-4998
ared	-4999
ixon	-5000
ulls	-5001
▁128	-5002
▁3.0	-5003
▁Sky	-5004
▁bre	-5005
▁mid	-5006
▁rod	-5007
▁sus	-5008
▁wal	-5009
atell	-5010
igned	-5011
other	-5012
▁Disc	-5013
▁Fire	-5014
▁base	-5015
▁jerk	-5016
▁2008,	-5017
▁Jamie	-5018
▁Loser	-5019
▁chief	-5020
▁cover	-5021
▁diego	-5022
ispanic	-5023
udition	-5024
▁Centre	-5025
▁Leader	-5026
▁Listed	-5027
▁reason	-5028
▁Digital	-5029
▁Tuesday	-5030
▁jackson	-5031
▁Premiere	-5032
▁Principal	-5033
ID	-5034
Un	-5035
gi	-5036
dds	-5037
get	-5038
hib	-5039
▁$4	-5040
▁04	-5041
▁EU	-5042
▁Ut	-5043
▁sr	-5044
None	-5045
acon	-5046
iant	-5047
iley	-5048
vest	-5049
▁111	-5050
▁123	-5051
▁Far	-5052
▁Mex	-5053
▁Ten	-5054
▁Ton	-5055
▁bur	-5056
▁mur	-5057
▁vfl	-5058
atche	-5059
enson	-5060
ijing	-5061
iseum	-5062
urity	-5063
▁1948	-5064
▁Bron	-5065
▁Lind	-5066
▁Male	-5067
▁Mean	-5068
▁fern	-5069
▁know	-5070
atelet	-5071
backer	-5072
incoln	-5073
▁Brook	-5074
▁Cross	-5075
▁Under	-5076
▁bills	-5077
▁kings	-5078
▁miami	-5079
▁wheel	-5080
▁Serial	-5081
▁Stolen	-5082
▁Trophy	-5083
▁annual	-5084
▁garden	-5085
▁Appoint	-5086
▁measure	-5087
▁nominee	-5088
▁village	-5089
▁writers	-5090
▁Arkansas	-5091
▁Combined	-5092
▁Minister	-5093
▁callsign	-5094
▁launched	-5095
▁occurred	-5096
▁programs	-5097
▁Louisiana	-5098
▁Administrative	-5099
62	-5100
CC	-5101
.57	-5102
elt	-5103
ran	-5104
▁$3	-5105
▁Ba	-5106
▁Du	-5107
▁HO	-5108
▁LE	-5109
▁cf	-5110
arch	-5111
bast	-5112
game	-5113
▁109	-5114
▁115	-5115
▁118	-5116
▁145	-5117
▁180	-5118
▁DVD	-5119
▁Old	-5120
▁whe	-5121
ctive	-5122
ester	-5123
▁1957	-5124
▁Arch	-5125
▁Fuel	-5126
▁HDTV	-5127
▁Hind	-5128
▁Zone	-5129
▁brad	-5130
▁core	-5131
▁love	-5132
Option	-5133
coming	-5134
emales	-5135
finals	-5136
itical	-5137
ompson	-5138
reland	-5139
stream	-5140
▁Found	-5141
▁Miami	-5142
▁brown	-5143
▁drove	-5144
▁henry	-5145
▁picks	-5146
▁(2002)	-5147
▁(2012)	-5148
▁Labour	-5149
▁Romaji	-5150
▁Sweden	-5151
▁bridge	-5152
▁manner	-5153
▁norway	-5154
▁stroke	-5155
▁watson	-5156
▁yamaha	-5157
province	-5158
▁drivers	-5159
▁feature	-5160
▁species	-5161
omination	-5162
▁Standard	-5163
▁finalist	-5164
▁memorial	-5165
breviation	-5166
literation	-5167
▁tennessee	-5168
▁Destination	-5169
sl	-5170
su	-5171
ét	-5172
ón	-5173
ora	-5174
ugh	-5175
▁03	-5176
▁2)	-5177
▁Cy	-5178
▁Go	-5179
▁ap	-5180
▁et	-5181
▁ly	-5182
aged	-5183
airs	-5184
ansk	-5185
hens	-5186
▁$1,	-5187
▁0.0	-5188
▁0.4	-5189
▁34?	-5190
▁4-1	-5191
▁Jon	-5192
▁Ken	-5193
▁Mov	-5194
▁Rnd	-5195
▁Sal	-5196
▁ken	-5197
▁saw	-5198
▁ten	-5199
▁tko	-5200
▁ven	-5201
iesel	-5202
iling	-5203
obile	-5204
▁5,00	-5205
▁Cost	-5206
▁Mart	-5207
▁Sand	-5208
▁Tony	-5209
▁data	-5210
▁loan	-5211
▁mass	-5212
▁tier	-5213
celona	-5214
▁Appar	-5215
▁Hawks	-5216
▁Henry	-5217
▁Urban	-5218
▁chart	-5219
▁drama	-5220
▁driven	-5221
▁eagles	-5222
▁miller	-5223
unicipal	-5224
▁Indiana	-5225
▁Ireland	-5226
▁Website	-5227
▁cardinal	-5228
▁students	-5229
▁locations	-5230
▁settlement	-5231
▁Tournaments	-5232
▁designation	-5233
PM	-5234
ST	-5235
dr	-5236
⁄2	-5237
-27	-5238
-28	-5239
Age	-5240
gen	-5241
gin	-5242
nam	-5243
pin	-5244
ser	-5245
–3?	-5246
▁Ap	-5247
▁My	-5248
▁ot	-5249
▁ra	-5250
arat	-5251
elle	-5252
rial	-5253
rier	-5254
ware	-5255
▁1.6	-5256
▁32?	-5257
▁4.5	-5258
▁8.5	-5259
▁Ang	-5260
▁VFL	-5261
▁bud	-5262
▁exp	-5263
▁inc	-5264
▁mck	-5265
▁tax	-5266
alker	-5267
cedes	-5268
chedu	-5269
▁1962	-5270
▁Clay	-5271
▁alfa	-5272
▁ener	-5273
▁prov	-5274
eelers	-5275
garian	-5276
▁18-49	-5277
▁1988?	-5278
▁China	-5279
▁Range	-5280
▁SCORE	-5281
▁Techn	-5282
▁domin	-5283
▁short	-5284
ireland	-5285
ongress	-5286
▁Object	-5287
▁Socket	-5288
▁Titles	-5289
▁brazil	-5290
▁dances	-5291
▁econom	-5292
▁Bleeding	-5293
▁Southern	-5294
▁official	-5295
▁scotland	-5296
▁challenge	-5297
▁manchester	-5298
▁Programming	-5299
SC	-5300
-18	-5301
.76	-5302
.85	-5303
EST	-5304
abb	-5305
alb	-5306
edy	-5307
kyo	-5308
onz	-5309
ple	-5310
pur	-5311
rik	-5312
–14	-5313
▁NO	-5314
▁lq	-5315
▁ru	-5316
ares	-5317
boro	-5318
burn	-5319
dale	-5320
enna	-5321
gest	-5322
hard	-5323
olic	-5324
ovak	-5325
plor	-5326
roat	-5327
trib	-5328
▁116	-5329
▁32,	-5330
▁35,	-5331
▁4-6	-5332
▁AAA	-5333
▁BBC	-5334
▁Ice	-5335
▁Jac	-5336
▁Kim	-5337
▁Mel	-5338
▁Ros	-5339
▁aug	-5340
▁cat	-5341
▁dev	-5342
▁fly	-5343
emper	-5344
garia	-5345
ichel	-5346
mouth	-5347
unter	-5348
▁1940	-5349
▁Dick	-5350
▁Gary	-5351
▁ISBN	-5352
▁Real	-5353
▁full	-5354
▁stra	-5355
▁tech	-5356
entina	-5357
estyle	-5358
etween	-5359
▁1990?	-5360
▁Great	-5361
▁Ident	-5362
▁fleet	-5363
▁korea	-5364
▁storm	-5365
▁tiger	-5366
▁while	-5367
▁Friday	-5368
▁Joseph	-5369
▁Winter	-5370
▁author	-5371
▁common	-5372
hibition	-5373
iverpool	-5374
▁Example	-5375
▁playoff	-5376
▁revenue	-5377
▁billions	-5378
▁colorado	-5379
▁cosworth	-5380
▁partners	-5381
▁australian	-5382
/3	-5383
AP	-5384
IG	-5385
PP	-5386
mw	-5387
ão	-5388
üd	-5389
apt	-5390
met	-5391
–16	-5392
▁(£	-5393
▁PA	-5394
▁gp	-5395
▁kr	-5396
▁ss	-5397
alog	-5398
pose	-5399
sted	-5400
wide	-5401
▁126	-5402
▁130	-5403
▁2.6	-5404
▁8.6	-5405
▁Her	-5406
▁III	-5407
▁Sat	-5408
▁Sol	-5409
▁hol	-5410
▁hur	-5411
▁pts	-5412
akota	-5413
ancer	-5414
ience	-5415
ining	-5416
▁PLAY	-5417
▁doll	-5418
▁ryan	-5419
▁samp	-5420
tridge	-5421
urname	-5422
▁After	-5423
▁Civil	-5424
▁Pilot	-5425
▁Royal	-5426
▁Telev	-5427
▁drive	-5428
▁equiv	-5429
▁kevin	-5430
▁light	-5431
umacher	-5432
▁church	-5433
▁ethnic	-5434
▁winter	-5435
atellite	-5436
▁Drivers	-5437
▁Houston	-5438
▁Netflix	-5439
▁Partial	-5440
▁Sponsor	-5441
▁Vehicle	-5442
▁british	-5443
▁calgary	-5444
dependent	-5445
▁Broadway	-5446
▁Colorado	-5447
▁Garfield	-5448
▁Released	-5449
▁Thursday	-5450
▁manufact	-5451
▁southern	-5452
▁Wednesday	-5453
▁individual	-5454
▁Commissioned	-5455
▁Headquarters	-5456
▁Massachusetts	-5457
9%	-5458
]?	-5459
_{	-5460
ni	-5461
xx	-5462
.27	-5463
.8?	-5464
BER	-5465
feo	-5466
osé	-5467
▁BR	-5468
▁Lo	-5469
▁Lu	-5470
▁SP	-5471
▁hp	-5472
cont	-5473
elli	-5474
enzo	-5475
ipeg	-5476
itor	-5477
ommy	-5478
ruck	-5479
tegr	-5480
▁(5)	-5481
▁1.1	-5482
▁136	-5483
▁350	-5484
▁380	-5485
▁63,	-5486
▁9.7	-5487
▁Hor	-5488
▁alf	-5489
▁bol	-5490
▁mhz	-5491
▁sab	-5492
▁via	-5493
-69=2	-5494
ancel	-5495
asket	-5496
organ	-5497
orter	-5498
ument	-5499
▁Laid	-5500
▁Live	-5501
▁Mult	-5502
▁Ober	-5503
▁aver	-5504
▁dick	-5505
▁just	-5506
▁some	-5507
ending	-5508
ession	-5509
etails	-5510
ipient	-5511
letion	-5512
▁Chart	-5513
▁Major	-5514
▁Motor	-5515
▁Point	-5516
▁Short	-5517
▁Spain	-5518
▁Three	-5519
▁Tiger	-5520
▁build	-5521
▁grids	-5522
▁lions	-5523
▁organ	-5524
▁saint	-5525
▁spect	-5526
anskrit	-5527
▁Annual	-5528
▁Deaths	-5529
▁Mexico	-5530
▁daniel	-5531
▁hockey	-5532
▁meters	-5533
▁served	-5534
▁tigers	-5535
▁Antonio	-5536
▁britain	-5537
▁indiana	-5538
▁popular	-5539
▁raymond	-5540
▁runners	-5541
▁Columbia	-5542
▁Townland	-5543
▁Birthplace	-5544
▁Partnering	-5545
▁Displacement	-5546
/6	-5547
EN	-5548
SU	-5549
sw	-5550
wh	-5551
.47	-5552
/10	-5553
aby	-5554
med	-5555
oba	-5556
pes	-5557
uda	-5558
van	-5559
▁5:	-5560
▁Gl	-5561
▁ba	-5562
▁si	-5563
anja	-5564
buil	-5565
chen	-5566
iron	-5567
olas	-5568
▁51,	-5569
▁gol	-5570
▁lor	-5571
▁rpm	-5572
being	-5573
ellow	-5574
izona	-5575
nipeg	-5576
orman	-5577
raine	-5578
▁Nord	-5579
▁Pass	-5580
▁TEAM	-5581
▁Utah	-5582
▁gree	-5583
▁life	-5584
▁sold	-5585
▁tyre	-5586
▁verb	-5587
▁India	-5588
▁Jason	-5589
▁Route	-5590
▁andre	-5591
▁2007–0	-5592
▁Econom	-5593
▁Russia	-5594
▁System	-5595
▁assist	-5596
▁metres	-5597
▁output	-5598
assenger	-5599
▁Kingdom	-5600
▁Largest	-5601
▁Quarter	-5602
▁Village	-5603
▁Voltage	-5604
▁arizona	-5605
▁mission	-5606
▁swimmer	-5607
▁Internet	-5608
▁religion	-5609
▁Christian	-5610
▁prolonged	-5611
▁linebacker	-5612
▁representative	-5613
81	-5614
FS	-5615
||	-5616
-7?	-5617
.04	-5618
400	-5619
AME	-5620
hou	-5621
inz	-5622
str	-5623
uca	-5624
vet	-5625
–25	-5626
▁BB	-5627
▁CB	-5628
▁df	-5629
▁so	-5630
ALLE	-5631
atin	-5632
eman	-5633
itan	-5634
oted	-5635
reen	-5636
stra	-5637
ties	-5638
uart	-5639
▁3.6	-5640
▁9.8	-5641
▁Gal	-5642
▁Was	-5643
▁ant	-5644
▁bra	-5645
▁esp	-5646
▁fox	-5647
▁gal	-5648
▁iii	-5649
▁oct	-5650
-72=2	-5651
Issue	-5652
abham	-5653
andro	-5654
angay	-5655
etter	-5656
▁Hall	-5657
▁fail	-5658
▁fire	-5659
▁live	-5660
▁turn	-5661
achine	-5662
ackers	-5663
ifying	-5664
ipinas	-5665
uderia	-5666
▁1984?	-5667
▁1989?	-5668
▁1995?	-5669
▁2009,	-5670
▁Loses	-5671
▁Yacht	-5672
▁began	-5673
▁jason	-5674
▁press	-5675
▁royal	-5676
▁space	-5677
ometers	-5678
plified	-5679
▁Sunday	-5680
▁growth	-5681
▁joseph	-5682
▁profit	-5683
▁replay	-5684
▁valley	-5685
▁ireland	-5686
▁seattle	-5687
aditional	-5688
▁Montreal	-5689
▁Township	-5690
▁adelaide	-5691
▁branding	-5692
▁european	-5693
▁hamilton	-5694
▁patriots	-5695
▁straight	-5696
▁Celebrity	-5697
▁catalogue	-5698
▁districts	-5699
▁processor	-5700
▁supporting	-5701
▁Translation	-5702
▁construction	-5703
▁Semifinalists	-5704
cu	-5705
do	-5706
jo	-5707
/08	-5708
EFA	-5709
agu	-5710
aur	-5711
era	-5712
ici	-5713
oud	-5714
urb	-5715
▁$5	-5716
▁FI	-5717
▁Im	-5718
▁Jo	-5719
▁PO	-5720
▁Ze	-5721
000,	-5722
agon	-5723
ains	-5724
ogan	-5725
phis	-5726
▁189	-5727
▁2.4	-5728
▁34,	-5729
▁5.5	-5730
▁60,	-5731
▁7.8	-5732
▁PBA	-5733
▁Sec	-5734
▁Van	-5735
▁bbc	-5736
▁hay	-5737
▁mah	-5738
▁pac	-5739
ublin	-5740
verse	-5741
▁ANSI	-5742
▁Arab	-5743
▁Coll	-5744
▁Over	-5745
▁Prov	-5746
▁Sets	-5747
▁Stan	-5748
▁adam	-5749
▁crew	-5750
▁fall	-5751
▁good	-5752
▁jets	-5753
▁seen	-5754
▁wide	-5755
▁1964?	-5756
▁Brian	-5757
▁Clean	-5758
▁Domin	-5759
▁Kilda	-5760
▁civil	-5761
▁simon	-5762
▁talle	-5763
▁width	-5764
aterial	-5765
entials	-5766
▁Finale	-5767
▁Slalom	-5768
▁studio	-5769
▁toyota	-5770
▁Classic	-5771
▁Present	-5772
▁Raiders	-5773
▁Surname	-5774
▁between	-5775
▁scoring	-5776
▁kardinia	-5777
▁township	-5778
▁brunswick	-5779
▁presenter	-5780
▁Designation	-5781
EC	-5782
.05	-5783
.09	-5784
.75	-5785
201	-5786
600	-5787
aga	-5788
agh	-5789
bie	-5790
chi	-5791
cks	-5792
eme	-5793
ext	-5794
iji	-5795
low	-5796
wen	-5797
▁.3	-5798
▁02	-5799
▁5/	-5800
▁Ev	-5801
▁FM	-5802
▁FS	-5803
▁Sa	-5804
▁WC	-5805
▁ak	-5806
▁ho	-5807
▁ue	-5808
ique	-5809
ryst	-5810
yrac	-5811
▁(11	-5812
▁114	-5813
▁119	-5814
▁135	-5815
▁38?	-5816
▁65,	-5817
▁Aut	-5818
▁Bad	-5819
▁Bus	-5820
▁DFL	-5821
▁Mid	-5822
▁ger	-5823
▁kit	-5824
▁les	-5825
▁ufc	-5826
▁wed	-5827
ALLER	-5828
ademy	-5829
eline	-5830
oviet	-5831
rough	-5832
senal	-5833
urray	-5834
▁1946	-5835
▁1952	-5836
▁5–7,	-5837
▁Days	-5838
▁UEFA	-5839
▁Word	-5840
▁bern	-5841
▁both	-5842
▁male	-5843
▁mill	-5844
▁punt	-5845
▁rest	-5846
▁shot	-5847
▁tied	-5848
-72=28	-5849
plorer	-5850
▁0–100	-5851
▁2011,	-5852
▁analy	-5853
▁brook	-5854
▁colle	-5855
▁india	-5856
▁lotus	-5857
▁users	-5858
isation	-5859
yracuse	-5860
▁Dallas	-5861
▁Libert	-5862
▁Monday	-5863
▁energy	-5864
▁factor	-5865
▁fourth	-5866
▁2007–08	-5867
▁America	-5868
▁Phoenix	-5869
▁SMALLER	-5870
▁product	-5871
▁combined	-5872
▁involves	-5873
▁stations	-5874
▁Aggregate	-5875
▁Publisher	-5876
▁available	-5877
▁directors	-5878
'?	-5879
68	-5880
.28	-5881
.32	-5882
.96	-5883
/03	-5884
cal	-5885
eva	-5886
ilo	-5887
lan	-5888
ogs	-5889
sts	-5890
tro	-5891
▁)?	-5892
▁CP	-5893
▁SR	-5894
▁mm	-5895
▁pi	-5896
-10?	-5897
aver	-5898
iago	-5899
list	-5900
olly	-5901
rome	-5902
side	-5903
vils	-5904
▁(4)	-5905
▁(9)	-5906
▁38,	-5907
▁3–6	-5908
▁6-2	-5909
▁Jun	-5910
▁Map	-5911
▁Pen	-5912
▁Rid	-5913
▁Sum	-5914
▁Sur	-5915
▁box	-5916
▁int	-5917
▁las	-5918
▁lin	-5919
▁rub	-5920
ested	-5921
inger	-5922
itive	-5923
▁Kenn	-5924
▁Seat	-5925
▁Verb	-5926
▁disc	-5927
▁five	-5928
▁leon	-5929
▁sets	-5930
▁1979?	-5931
▁1986?	-5932
▁paris	-5933
▁tampa	-5934
▁Awards	-5935
▁Design	-5936
▁Howard	-5937
▁Sports	-5938
▁golden	-5939
▁lasted	-5940
▁little	-5941
▁serial	-5942
structed	-5943
▁Atlanta	-5944
▁someone	-5945
▁stewart	-5946
▁Regional	-5947
▁festival	-5948
▁Questions	-5949
▁currently	-5950
▁unopposed	-5951
▁wimbledon	-5952
▁switzerland	-5953
▁abbreviation	-5954
:1	-5955
aa	-5956
300	-5957
ads	-5958
iba	-5959
uji	-5960
–19	-5961
▁(/	-5962
▁AS	-5963
▁Av	-5964
▁RO	-5965
▁Rh	-5966
▁ng	-5967
▁wc	-5968
Rank	-5969
Team	-5970
alph	-5971
ctic	-5972
ione	-5973
orpe	-5974
quis	-5975
▁129	-5976
▁132	-5977
▁1–0	-5978
▁2.9	-5979
▁3-1	-5980
▁33,	-5981
▁49,	-5982
▁50,	-5983
▁HAS	-5984
▁Lin	-5985
▁Pan	-5986
▁Row	-5987
▁Ter	-5988
▁bmw	-5989
▁hyd	-5990
anton	-5991
avier	-5992
earch	-5993
iving	-5994
otein	-5995
rence	-5996
rolet	-5997
uncan	-5998
▁1920	-5999
▁Adam	-6000
▁Cred	-6001
▁Fast	-6002
▁Star	-6003
▁Test	-6004
▁hall	-6005
▁russ	-6006
allace	-6007
castle	-6008
owboys	-6009
rystal	-6010
uthors	-6011
▁Judge	-6012
▁Wrest	-6013
▁brian	-6014
▁dance	-6015
▁those	-6016
▁voted	-6017
▁Employ	-6018
▁Lowest	-6019
▁Public	-6020
▁Scores	-6021
▁Taylor	-6022
▁Valley	-6023
▁assets	-6024
▁births	-6025
▁double	-6026
▁gender	-6027
▁graham	-6028
askatche	-6029
poration	-6030
▁Borough	-6031
▁Jackson	-6032
▁Opening	-6033
▁Orleans	-6034
▁Spanish	-6035
▁antonio	-6036
irmingham	-6037
▁Building	-6038
▁Oklahoma	-6039
▁Olympics	-6040
▁Francisco	-6041
▁magnitude	-6042
askatchewan	-6043
▁Manchester	-6044
▁constructed	-6045
▁outstanding	-6046
–9	-6047
-2)	-6048
-5?	-6049
.07	-6050
Par	-6051
USD	-6052
abi	-6053
app	-6054
box	-6055
elo	-6056
gio	-6057
igr	-6058
sea	-6059
sex	-6060
▁CH	-6061
▁LL	-6062
▁UC	-6063
-1)?	-6064
anna	-6065
ijay	-6066
ires	-6067
rive	-6068
tray	-6069
▁(14	-6070
▁147	-6071
▁175	-6072
▁33?	-6073
▁48,	-6074
▁9.5	-6075
▁MCG	-6076
▁gas	-6077
▁nat	-6078
▁nic	-6079
▁oil	-6080
atial	-6081
oslav	-6082
ropol	-6083
ugues	-6084
▁Euro	-6085
▁comb	-6086
▁mile	-6087
▁mult	-6088
▁spec	-6089
▁them	-6090
▁then	-6091
-71=28	-6092
league	-6093
ograph	-6094
season	-6095
▁1991?	-6096
▁2010,	-6097
▁AAAAA	-6098
▁Labor	-6099
▁Lions	-6100
▁achie	-6101
▁jerry	-6102
▁jimmy	-6103
ossible	-6104
upation	-6105
▁(2006)	-6106
▁Assemb	-6107
▁Assist	-6108
▁Miller	-6109
▁denver	-6110
▁german	-6111
▁jockey	-6112
▁Austria	-6113
▁belongs	-6114
▁credits	-6115
▁digital	-6116
▁italian	-6117
velopment	-6118
▁Governor	-6119
▁athletic	-6120
▁kentucky	-6121
▁winnings	-6122
▁Milwaukee	-6123
▁Contestant	-6124
▁Prothrombin	-6125
▁displacement	-6126
/9	-6127
TE	-6128
UR	-6129
ju	-6130
rm	-6131
si	-6132
sy	-6133
▁.	-6134
-6,	-6135
/02	-6136
ava	-6137
elf	-6138
ema	-6139
fox	-6140
ikh	-6141
iki	-6142
isk	-6143
udy	-6144
uez	-6145
▁+3	-6146
▁Kr	-6147
▁sy	-6148
/100	-6149
auer	-6150
eded	-6151
feld	-6152
ivan	-6153
rael	-6154
ryan	-6155
▁(3)	-6156
▁124	-6157
▁2.3	-6158
▁3.3	-6159
▁44,	-6160
▁6.5	-6161
▁64,	-6162
▁800	-6163
▁Der	-6164
▁Fri	-6165
▁POS	-6166
▁bad	-6167
▁bal	-6168
▁dim	-6169
▁pop	-6170
ather	-6171
itche	-6172
olley	-6173
oster	-6174
riors	-6175
tario	-6176
utral	-6177
▁1500	-6178
▁Bank	-6179
▁Base	-6180
▁Bats	-6181
▁Bern	-6182
▁anna	-6183
▁bowl	-6184
▁diff	-6185
▁fore	-6186
▁jose	-6187
▁ross	-6188
▁sunk	-6189
▁uefa	-6190
anucks	-6191
pendit	-6192
rizona	-6193
▁2007,	-6194
▁Clock	-6195
▁Kevin	-6196
▁Radio	-6197
▁Windy	-6198
▁craig	-6199
▁ident	-6200
▁mario	-6201
▁stock	-6202
▁wales	-6203
olphins	-6204
ternate	-6205
▁Common	-6206
▁Trofeo	-6207
▁airing	-6208
▁bruins	-6209
▁design	-6210
▁memory	-6211
▁senior	-6212
allation	-6213
perience	-6214
▁Alabama	-6215
▁Ferrari	-6216
▁Roberts	-6217
▁Zealand	-6218
▁oakland	-6219
▁tonnage	-6220
asketball	-6221
▁Hamilton	-6222
▁Timeslot	-6223
▁columbia	-6224
▁canadiens	-6225
▁operation	-6226
▁cincinnati	-6227
▁resolution	-6228
▁destination	-6229
MP	-6230
Tr	-6231
VA	-6232
dy	-6233
uh	-6234
▁:	-6235
.46	-6236
.62	-6237
Met	-6238
oha	-6239
phy	-6240
▁Ho	-6241
▁Nm	-6242
▁hd	-6243
sion	-6244
umer	-6245
▁138	-6246
▁141	-6247
▁70,	-6248
▁Dem	-6249
▁Hol	-6250
▁LAR	-6251
▁LOA	-6252
▁Rem	-6253
▁Two	-6254
▁YES	-6255
▁cit	-6256
▁cop	-6257
▁hor	-6258
▁mir	-6259
▁rab	-6260
▁rad	-6261
▁vis	-6262
-73=2	-6263
andra	-6264
eremy	-6265
ivity	-6266
laren	-6267
▁6–3?	-6268
▁Arri	-6269
▁Core	-6270
▁Fate	-6271
▁andy	-6272
▁each	-6273
▁kenn	-6274
▁lady	-6275
▁lock	-6276
▁yard	-6277
United	-6278
acters	-6279
aining	-6280
ership	-6281
▁Arden	-6282
▁Honda	-6283
▁Marri	-6284
▁Opera	-6285
▁Tamil	-6286
▁bears	-6287
▁maria	-6288
ability	-6289
ualties	-6290
▁Capita	-6291
▁Colors	-6292
▁Female	-6293
▁Former	-6294
▁Scorer	-6295
▁berlin	-6296
▁carlos	-6297
▁diesel	-6298
▁taylor	-6299
▁voters	-6300
lication	-6301
▁Anthony	-6302
▁Arizona	-6303
▁Britain	-6304
▁Trainer	-6305
▁council	-6306
▁hungary	-6307
Territory	-6308
atalities	-6309
ucational	-6310
▁oklahoma	-6311
▁receiver	-6312
▁Completed	-6313
▁Pilipinas	-6314
▁christian	-6315
▁Commercial	-6316
▁appearance	-6317
▁equivalent	-6318
▁Agricultural	-6319
DR	-6320
dp	-6321
oa	-6322
′′	-6323
)"?	-6324
-31	-6325
.26	-6326
.74	-6327
.77	-6328
ATE	-6329
ble	-6330
lit	-6331
rav	-6332
▁"2	-6333
▁ko	-6334
▁nc	-6335
amar	-6336
andy	-6337
anga	-6338
ante	-6339
edro	-6340
empt	-6341
haus	-6342
oche	-6343
ring	-6344
rong	-6345
stan	-6346
zuki	-6347
▁(99	-6348
▁0.3	-6349
▁0.9	-6350
▁1-3	-6351
▁121	-6352
▁24:	-6353
▁53,	-6354
▁Add	-6355
▁Arm	-6356
▁Bin	-6357
▁Bud	-6358
▁CON	-6359
▁Cla	-6360
▁Did	-6361
▁Gil	-6362
▁Lor	-6363
▁Ren	-6364
▁Whe	-6365
▁arm	-6366
▁ash	-6367
▁ian	-6368
▁jay	-6369
▁mas	-6370
▁ord	-6371
▁pil	-6372
▁ram	-6373
Share	-6374
abeth	-6375
agons	-6376
annon	-6377
apter	-6378
ering	-6379
opher	-6380
water	-6381
▁1939	-6382
▁1941	-6383
▁Debt	-6384
▁Jets	-6385
▁Tier	-6386
▁arch	-6387
▁cups	-6388
▁euro	-6389
▁girl	-6390
▁pict	-6391
cticut	-6392
ipline	-6393
ortray	-6394
rivers	-6395
vrolet	-6396
▁1978?	-6397
▁2011/	-6398
▁Blank	-6399
▁Tyres	-6400
▁Wales	-6401
▁beach	-6402
▁codes	-6403
▁court	-6404
▁cross	-6405
▁lanes	-6406
▁techn	-6407
▁tower	-6408
atholic	-6409
ivities	-6410
▁Jordan	-6411
▁LARGER	-6412
▁Ofsted	-6413
▁Oliver	-6414
▁carpet	-6415
▁indoor	-6416
▁ottawa	-6417
▁poland	-6418
▁queens	-6419
▁volume	-6420
▁wilson	-6421
necticut	-6422
tegrated	-6423
▁Batting	-6424
▁Bowling	-6425
▁Princes	-6426
▁Seattle	-6427
▁america	-6428
▁broncos	-6429
▁orleans	-6430
▁patrick	-6431
▁private	-6432
▁special	-6433
▁Composer	-6434
▁Scotland	-6435
▁Wrestler	-6436
▁altitude	-6437
▁operator	-6438
▁timeslot	-6439
▁Bulgarian	-6440
▁featuring	-6441
▁sheffield	-6442
▁wanderers	-6443
▁Pittsburgh	-6444
▁introduced	-6445
▁represented	-6446
▁installation	-6447
SR	-6448
bi	-6449
▁†	-6450
-77	-6451
bol	-6452
har	-6453
lia	-6454
unn	-6455
usk	-6456
–7)	-6457
▁Bu	-6458
▁Kh	-6459
▁bt	-6460
▁cb	-6461
▁je	-6462
▁sq	-6463
-13?	-6464
-14?	-6465
fall	-6466
ness	-6467
ondu	-6468
pass	-6469
ride	-6470
umph	-6471
▁"19	-6472
▁0.1	-6473
▁43,	-6474
▁78,	-6475
▁Div	-6476
▁Ell	-6477
▁Hay	-6478
▁Ron	-6479
▁alb	-6480
▁feb	-6481
▁hot	-6482
▁kWh	-6483
▁pav	-6484
atory	-6485
illip	-6486
ocity	-6487
▁1930	-6488
▁Bang	-6489
▁Brad	-6490
▁Jose	-6491
▁Love	-6492
▁Solo	-6493
▁Tied	-6494
▁beat	-6495
▁iowa	-6496
▁move	-6497
▁prop	-6498
▁sequ	-6499
ariant	-6500
helsea	-6501
ovakia	-6502
uation	-6503
▁11:00	-6504
▁1966?	-6505
▁1976?	-6506
▁Diego	-6507
▁Force	-6508
▁billy	-6509
▁milan	-6510
▁owned	-6511
▁spell	-6512
▁stars	-6513
liament	-6514
▁Blocks	-6515
▁Garden	-6516
▁Invest	-6517
▁Queens	-6518
▁column	-6519
▁direct	-6520
▁golfer	-6521
▁howard	-6522
▁indust	-6523
▁socket	-6524
election	-6525
tainment	-6526
▁Meaning	-6527
▁Russian	-6528
▁Stephen	-6529
▁elapsed	-6530
▁polling	-6531
▁scorers	-6532
▁stephen	-6533
▁tallest	-6534
▁Barangay	-6535
▁marathon	-6536
▁receipts	-6537
▁selected	-6538
okesperson	-6539
▁Singapore	-6540
▁Wisconsin	-6541
▁alexander	-6542
▁condition	-6543
▁reporters	-6544
▁Netherlands	-6545
▁indianapolis	-6546
▁pennsylvania	-6547
/8	-6548
DS	-6549
SF	-6550
gu	-6551
.01	-6552
.03	-6553
.45	-6554
.58	-6555
/07	-6556
kee	-6557
num	-6558
tha	-6559
–0,	-6560
–17	-6561
▁6-	-6562
▁Ca	-6563
▁Di	-6564
▁PP	-6565
▁RR	-6566
▁az	-6567
▁gi	-6568
▁il	-6569
▁lb	-6570
-12?	-6571
OTAL	-6572
agle	-6573
aldi	-6574
alia	-6575
ardi	-6576
arus	-6577
atti	-6578
chez	-6579
okie	-6580
ores	-6581
pson	-6582
rain	-6583
▁(15	-6584
▁0-6	-6585
▁151	-6586
▁153	-6587
▁160	-6588
▁4-0	-6589
▁4.9	-6590
▁7.6	-6591
▁7.9	-6592
▁9.3	-6593
▁Fox	-6594
▁Gir	-6595
▁Hot	-6596
▁Imp	-6597
00000	-6598
Total	-6599
eston	-6600
inter	-6601
oming	-6602
uster	-6603
▁1:30	-6604
▁25–2	-6605
▁7–6(	-6606
▁Comb	-6607
▁Iowa	-6608
▁Ross	-6609
▁cook	-6610
▁flor	-6611
▁golf	-6612
▁juan	-6613
▁mail	-6614
▁pens	-6615
amples	-6616
orials	-6617
ousand	-6618
ptions	-6619
▁1981?	-6620
▁1982?	-6621
▁1985?	-6622
▁Month	-6623
▁Story	-6624
▁TOTAL	-6625
▁Union	-6626
▁broad	-6627
▁dated	-6628
▁grass	-6629
▁mount	-6630
▁shirt	-6631
▁sound	-6632
▁taken	-6633
▁would	-6634
ciation	-6635
itchell	-6636
▁Memory	-6637
▁Oilers	-6638
▁Parish	-6639
▁formal	-6640
▁streak	-6641
ccession	-6642
▁2004-05	-6643
▁Minutes	-6644
▁freight	-6645
▁opening	-6646
▁renault	-6647
overnment	-6648
ropolitan	-6649
▁Altitude	-6650
▁Edmonton	-6651
▁estimate	-6652
▁panthers	-6653
▁portland	-6654
▁Alexander	-6655
▁Appointed	-6656
▁Residence	-6657
▁Vancouver	-6658
▁charlotte	-6659
▁sponsored	-6660
▁Elimination	-6661
▁Termination	-6662
0000000000000	-6663
▁Indianapolis	-6664
.29	-6665
.40	-6666
NER	-6667
asm	-6668
axy	-6669
jun	-6670
orf	-6671
–07	-6672
▁DO	-6673
▁Ra	-6674
▁Te	-6675
▁rh	-6676
▁ul	-6677
▁zh	-6678
/201	-6679
Loss	-6680
arge	-6681
came	-6682
dart	-6683
ecut	-6684
inus	-6685
oman	-6686
orst	-6687
wall	-6688
▁0-4	-6689
▁2–0	-6690
▁35?	-6691
▁4-3	-6692
▁Alb	-6693
▁Ash	-6694
▁Cat	-6695
▁Cre	-6696
▁Dev	-6697
▁Dur	-6698
▁Key	-6699
▁Mir	-6700
▁Occ	-6701
▁Ram	-6702
▁Squ	-6703
▁hon	-6704
▁sat	-6705
▁tar	-6706
▁tot	-6707
bital	-6708
house	-6709
inent	-6710
izont	-6711
orean	-6712
rison	-6713
share	-6714
stant	-6715
uzzle	-6716
▁(199	-6717
▁(24)	-6718
▁10.8	-6719
▁11.8	-6720
▁Hart	-6721
▁Rece	-6722
▁Rick	-6723
▁Rome	-6724
▁Ryan	-6725
▁audi	-6726
▁cosp	-6727
▁fans	-6728
▁farm	-6729
▁hart	-6730
▁oliv	-6731
▁soft	-6732
overty	-6733
ternal	-6734
▁(2010	-6735
▁1974?	-6736
▁Andre	-6737
▁Space	-6738
▁Spike	-6739
▁balle	-6740
▁corio	-6741
▁males	-6742
▁wrest	-6743
izontal	-6744
▁Dennis	-6745
▁Friend	-6746
▁Steals	-6747
▁Target	-6748
▁colors	-6749
ashville	-6750
▁2007-08	-6751
▁Arrival	-6752
▁Patrick	-6753
▁Polling	-6754
▁Railway	-6755
▁Shooter	-6756
▁biggest	-6757
▁contain	-6758
▁content	-6759
▁section	-6760
▁Festival	-6761
▁Malaysia	-6762
▁Republic	-6763
▁chargers	-6764
▁features	-6765
▁includes	-6766
liminaries	-6767
▁appointed	-6768
▁direction	-6769
▁successors	-6770
▁corresponds	-6771
:4	-6772
AB	-6773
GN	-6774
SW	-6775
TS	-6776
}}	-6777
-00	-6778
-30	-6779
.72	-6780
Eng	-6781
acr	-6782
aja	-6783
enc	-6784
eto	-6785
fan	-6786
iah	-6787
iya	-6788
lét	-6789
til	-6790
weg	-6791
–15	-6792
▁Ft	-6793
▁LP	-6794
▁Ry	-6795
▁ga	-6796
▁hs	-6797
▁ju	-6798
▁ta	-6799
▁wy	-6800
abwe	-6801
apon	-6802
arks	-6803
ault	-6804
aven	-6805
ersh	-6806
gian	-6807
gypt	-6808
irit	-6809
leng	-6810
math	-6811
mson	-6812
ourg	-6813
outs	-6814
ovic	-6815
▁0-2	-6816
▁127	-6817
▁36,	-6818
▁40,	-6819
▁42?	-6820
▁600	-6821
▁62,	-6822
▁9.2	-6823
▁Bre	-6824
▁Kil	-6825
▁Pas	-6826
▁Pay	-6827
▁adv	-6828
▁bat	-6829
▁din	-6830
▁dis	-6831
▁eur	-6832
▁kaz	-6833
▁let	-6834
▁nhl	-6835
▁sep	-6836
albot	-6837
ancis	-6838
asaki	-6839
ebras	-6840
istol	-6841
ittee	-6842
ppers	-6843
retti	-6844
▁13.5	-6845
▁1934	-6846
▁1942	-6847
▁2:00	-6848
▁6–2?	-6849
▁Doug	-6850
▁Fred	-6851
▁Good	-6852
▁Legs	-6853
▁Life	-6854
▁Link	-6855
▁Slam	-6856
▁Virt	-6857
▁bear	-6858
▁boat	-6859
▁bush	-6860
▁chip	-6861
▁conf	-6862
▁join	-6863
▁legs	-6864
▁meet	-6865
▁page	-6866
▁read	-6867
▁rick	-6868
▁ride	-6869
▁secs	-6870
-71=14	-6871
adores	-6872
lético	-6873
mathrm	-6874
quired	-6875
second	-6876
▁1977?	-6877
▁Bills	-6878
▁Organ	-6879
▁Since	-6880
▁Tampa	-6881
▁Terry	-6882
▁bobby	-6883
▁choke	-6884
▁queen	-6885
▁romeo	-6886
acility	-6887
ebraska	-6888
ibining	-6889
iscover	-6890
izabeth	-6891
olation	-6892
vention	-6893
▁Accred	-6894
▁Bruins	-6895
▁Bullet	-6896
▁instit	-6897
▁issued	-6898
▁jordan	-6899
▁moscow	-6900
▁oliver	-6901
▁stolen	-6902
Hispanic	-6903
▁Eastern	-6904
▁Matthew	-6905
▁Records	-6906
▁Scorers	-6907
▁aprilia	-6908
▁beijing	-6909
▁liberal	-6910
▁raiders	-6911
▁railway	-6912
unciation	-6913
▁Sanskrit	-6914
▁possible	-6915
▁Commander	-6916
▁baltimore	-6917
▁Identifier	-6918
▁commercial	-6919
▁kilometers	-6920
▁Inhabitants	-6921
▁preliminary	-6922
▁constellation	-6923
De	-6924
GP	-6925
MA	-6926
TH	-6927
cd	-6928
hh	-6929
nm	-6930
.34	-6931
.42	-6932
esp	-6933
igg	-6934
ipi	-6935
lon	-6936
mad	-6937
max	-6938
spe	-6939
via	-6940
▁-1	-6941
▁1)	-6942
▁Mo	-6943
▁SS	-6944
▁UN	-6945
▁cm	-6946
▁lo	-6947
-17?	-6948
amin	-6949
onen	-6950
rank	-6951
vals	-6952
–25?	-6953
▁(7–	-6954
▁204	-6955
▁207	-6956
▁4-2	-6957
▁40?	-6958
▁4–6	-6959
▁Hal	-6960
▁Jan	-6961
▁Rap	-6962
▁Sar	-6963
▁gil	-6964
▁nak	-6965
▁sar	-6966
▁sea	-6967
▁tel	-6968
▁tro	-6969
▁vic	-6970
agues	-6971
eller	-6972
itals	-6973
ogers	-6974
▁3:00	-6975
▁Hong	-6976
▁Mile	-6977
▁Mill	-6978
▁Wild	-6979
▁bell	-6980
▁cars	-6981
▁lose	-6982
▁mand	-6983
▁nord	-6984
▁safe	-6985
▁save	-6986
▁wolf	-6987
▁yank	-6988
German	-6989
iction	-6990
uguese	-6991
▁1961?	-6992
▁2006,	-6993
▁Bobby	-6994
▁Kings	-6995
▁Larry	-6996
▁Reign	-6997
▁Woods	-6998
▁equal	-6999
▁10,000	-7000
▁Browns	-7001
▁Norway	-7002
▁Watson	-7003
▁Wicket	-7004
▁female	-7005
▁greece	-7006
▁retire	-7007
opulsion	-7008
▁2006–07	-7009
▁2011–12	-7010
▁Innings	-7011
▁Pennant	-7012
▁Pitcher	-7013
▁Product	-7014
▁Senator	-7015
▁Support	-7016
▁austria	-7017
▁brabham	-7018
▁eastern	-7019
▁lincoln	-7020
▁partial	-7021
▁placing	-7022
▁reached	-7023
▁Elevator	-7024
▁Finished	-7025
▁Lyricist	-7026
▁Missouri	-7027
▁admitted	-7028
▁bleeding	-7029
▁fernando	-7030
▁reported	-7031
▁steelers	-7032
▁barcelona	-7033
▁celebrity	-7034
▁freestyle	-7035
▁president	-7036
▁principal	-7037
▁published	-7038
▁Bodyweight	-7039
▁Cincinnati	-7040
▁Locomotive	-7041
▁completion	-7042
ronunciation	-7043
▁Declination	-7044
An	-7045
cr	-7046
di	-7047
dt	-7048
gn	-7049
ho	-7050
iu	-7051
ía	-7052
▁~	-7053
▁±	-7054
.37	-7055
.50	-7056
.67	-7057
.81	-7058
Att	-7059
III	-7060
aux	-7061
awn	-7062
bay	-7063
bec	-7064
eep	-7065
ery	-7066
ete	-7067
icc	-7068
ige	-7069
kts	-7070
ori	-7071
uka	-7072
▁+4	-7073
▁Fa	-7074
▁GN	-7075
▁MW	-7076
▁NT	-7077
▁ON	-7078
▁PR	-7079
▁hu	-7080
▁ry	-7081
▁−1	-7082
:30?	-7083
Year	-7084
amps	-7085
anim	-7086
asia	-7087
assi	-7088
erve	-7089
furt	-7090
ifer	-7091
ikos	-7092
laps	-7093
ondo	-7094
onso	-7095
▁(80	-7096
▁(98	-7097
▁1.7	-7098
▁142	-7099
▁5.8	-7100
▁7.5	-7101
▁Arg	-7102
▁Beg	-7103
▁Feb	-7104
▁Flo	-7105
▁Fly	-7106
▁Mur	-7107
▁Nos	-7108
▁Sid	-7109
▁Wal	-7110
▁ark	-7111
▁boy	-7112
▁lie	-7113
▁mic	-7114
▁ron	-7115
▁ski	-7116
abbin	-7117
afari	-7118
allel	-7119
angul	-7120
aples	-7121
aware	-7122
azers	-7123
azine	-7124
cycle	-7125
iguel	-7126
itans	-7127
oline	-7128
olled	-7129
orage	-7130
phone	-7131
ryant	-7132
thard	-7133
ussen	-7134
▁6–4?	-7135
▁Freq	-7136
▁Jean	-7137
▁Odds	-7138
▁Tech	-7139
▁bart	-7140
▁book	-7141
▁buck	-7142
▁coin	-7143
▁gear	-7144
▁jean	-7145
▁josé	-7146
▁todd	-7147
▁zone	-7148
-72=14	-7149
alliga	-7150
bridge	-7151
ewable	-7152
imming	-7153
orsche	-7154
▁1965?	-7155
▁1971?	-7156
▁2005,	-7157
▁Dutch	-7158
▁Mount	-7159
▁Saint	-7160
▁Tally	-7161
▁bruce	-7162
▁clean	-7163
▁depth	-7164
▁nickn	-7165
▁react	-7166
▁singh	-7167
▁story	-7168
▁yacht	-7169
akistan	-7170
imbabwe	-7171
nominal	-7172
rowhead	-7173
ullivan	-7174
▁Morris	-7175
▁Nelson	-7176
▁People	-7177
▁Stakes	-7178
▁Strike	-7179
▁credit	-7180
▁johnny	-7181
▁justin	-7182
▁proper	-7183
oorabbin	-7184
outheast	-7185
▁Belgium	-7186
▁Numbers	-7187
▁Prefect	-7188
▁Profits	-7189
▁driving	-7190
▁kickoff	-7191
▁seconds	-7192
▁2006-200	-7193
▁Attempts	-7194
▁Brisbane	-7195
▁Elevated	-7196
▁Explorer	-7197
▁Patriots	-7198
▁Platelet	-7199
▁arrivals	-7200
▁governor	-7201
▁minister	-7202
▁Baltimore	-7203
▁Community	-7204
▁Departure	-7205
▁finalists	-7206
▁louisiana	-7207
▁offensive	-7208
▁satellite	-7209
▁Industrial	-7210
▁retirement	-7211
000000000000	-7212
▁electricity	-7213
▁replacement	-7214
▁Cardinalatial	-7215
▁administrative	-7216
.(	-7217
78	-7218
EP	-7219
hr	-7220
sb	-7221
-26	-7222
-85	-7223
-94	-7224
.24	-7225
.43	-7226
/05	-7227
EAR	-7228
ags	-7229
cts	-7230
key	-7231
odg	-7232
ram	-7233
ubb	-7234
ymn	-7235
ynn	-7236
zen	-7237
▁1-	-7238
▁BP	-7239
▁EP	-7240
▁Ha	-7241
▁Hy	-7242
▁PF	-7243
▁Sy	-7244
▁Wy	-7245
▁mf	-7246
-20?	-7247
1000	-7248
ahaw	-7249
alam	-7250
ashi	-7251
iate	-7252
icer	-7253
inth	-7254
iors	-7255
ized	-7256
loss	-7257
onym	-7258
time	-7259
week	-7260
▁(50	-7261
▁131	-7262
▁133	-7263
▁148	-7264
▁2-3	-7265
▁210	-7266
▁4-4	-7267
▁47,	-7268
▁Cod	-7269
▁ITV	-7270
▁McG	-7271
▁Nic	-7272
▁Ret	-7273
▁Sud	-7274
▁cub	-7275
▁cur	-7276
▁dar	-7277
▁ghz	-7278
▁key	-7279
▁ore	-7280
▁six	-7281
5,000	-7282
eased	-7283
edish	-7284
icana	-7285
rican	-7286
umped	-7287
useum	-7288
uther	-7289
▁(11)	-7290
▁1945	-7291
▁Cart	-7292
▁DATE	-7293
▁Jury	-7294
▁Whit	-7295
▁alca	-7296
▁card	-7297
▁chen	-7298
▁jess	-7299
▁wars	-7300
-71=27	-7301
imated	-7302
mitter	-7303
▁15-16	-7304
▁1968?	-7305
▁1973?	-7306
▁2001,	-7307
▁5,008	-7308
▁71-69	-7309
▁Billy	-7310
▁Cargo	-7311
▁Craig	-7312
▁Kelly	-7313
▁Malay	-7314
▁Simon	-7315
▁about	-7316
▁appro	-7317
▁based	-7318
▁derby	-7319
▁front	-7320
▁leave	-7321
▁media	-7322
▁purse	-7323
▁roger	-7324
▁types	-7325
▁visit	-7326
▁Associ	-7327
▁Bridge	-7328
▁Prince	-7329
▁cancel	-7330
▁ending	-7331
▁former	-7332
▁soccer	-7333
▁talbot	-7334
▁Authors	-7335
▁Firefox	-7336
▁Purpose	-7337
▁Special	-7338
▁Windows	-7339
▁bowling	-7340
▁control	-7341
▁innings	-7342
▁packers	-7343
▁vacator	-7344
▁2000-200	-7345
▁Apparent	-7346
▁Delegate	-7347
▁Provider	-7348
▁bulgaria	-7349
▁cyrillic	-7350
▁halfback	-7351
▁majority	-7352
▁military	-7353
▁republic	-7354
▁velocity	-7355
▁Operation	-7356
▁Political	-7357
▁Withdrawn	-7358
▁islanders	-7359
▁remaining	-7360
▁Foundation	-7361
/5	-7362
BS	-7363
FM	-7364
KA	-7365
Se	-7366
TR	-7367
uv	-7368
ör	-7369
-39	-7370
-63	-7371
.63	-7372
PPP	-7373
des	-7374
erc	-7375
ibb	-7376
ixt	-7377
oly	-7378
pha	-7379
pun	-7380
sec	-7381
uve	-7382
▁1.	-7383
▁AM	-7384
▁DC	-7385
▁IV	-7386
▁So	-7387
▁fb	-7388
▁kh	-7389
▁ky	-7390
▁mb	-7391
CLIS	-7392
City	-7393
anzi	-7394
aves	-7395
cell	-7396
down	-7397
engu	-7398
ente	-7399
lake	-7400
lett	-7401
osse	-7402
resh	-7403
rone	-7404
stro	-7405
vino	-7406
▁170	-7407
▁52,	-7408
▁6–1	-7409
▁CER	-7410
▁Cav	-7411
▁FIS	-7412
▁Lif	-7413
▁McK	-7414
▁PSI	-7415
▁Pac	-7416
▁cam	-7417
▁fel	-7418
▁kaw	-7419
-2000	-7420
-67=2	-7421
UMBER	-7422
inema	-7423
iners	-7424
ograp	-7425
owell	-7426
ymbol	-7427
ynamo	-7428
▁(100	-7429
▁1910	-7430
▁Bell	-7431
▁Conf	-7432
▁Dire	-7433
▁Fore	-7434
▁Kong	-7435
▁Pers	-7436
▁Rams	-7437
▁Rose	-7438
▁coed	-7439
▁reds	-7440
▁tele	-7441
▁utah	-7442
-69=28	-7443
-73=28	-7444
Region	-7445
aneiro	-7446
change	-7447
employ	-7448
engals	-7449
ennett	-7450
keeper	-7451
ources	-7452
▁10.14	-7453
▁1954?	-7454
▁1969?	-7455
▁2004,	-7456
▁Cache	-7457
▁Distr	-7458
▁Irish	-7459
▁Jimmy	-7460
▁Stock	-7461
▁bulls	-7462
▁force	-7463
▁heavy	-7464
▁lyric	-7465
▁maple	-7466
▁throw	-7467
alencia	-7468
animous	-7469
western	-7470
▁2005–0	-7471
▁Battle	-7472
▁Giants	-7473
▁Junior	-7474
▁Strong	-7475
▁became	-7476
▁commun	-7477
▁modern	-7478
▁saints	-7479
▁temper	-7480
▁tonnes	-7481
anguages	-7482
ickelson	-7483
oreograp	-7484
oulthard	-7485
▁CERCLIS	-7486
▁Olympic	-7487
▁anthony	-7488
▁details	-7489
▁foreign	-7490
▁parties	-7491
▁profess	-7492
▁profile	-7493
▁reports	-7494
quisition	-7495
▁Domestic	-7496
▁Particip	-7497
▁Question	-7498
▁Reaction	-7499
▁brisbane	-7500
▁channels	-7501
▁pressure	-7502
▁wildcats	-7503
▁Birthdate	-7504
▁Charlotte	-7505
▁Recipient	-7506
▁argentina	-7507
▁milwaukee	-7508
▁requested	-7509
▁activities	-7510
▁integrated	-7511
▁Credentials	-7512
▁contestants	-7513
/?	-7514
OP	-7515
Qu	-7516
pa	-7517
.5,	-7518
.65	-7519
.89	-7520
.92	-7521
800	-7522
ING	-7523
_{\	-7524
aza	-7525
due	-7526
enh	-7527
fix	-7528
isi	-7529
ogn	-7530
rex	-7531
ups	-7532
▁Ak	-7533
▁Ow	-7534
▁ni	-7535
▁vo	-7536
atar	-7537
augh	-7538
bank	-7539
cker	-7540
ests	-7541
idad	-7542
laus	-7543
occo	-7544
onia	-7545
▁155	-7546
▁156	-7547
▁1–1	-7548
▁37,	-7549
▁39,	-7550
▁3–2	-7551
▁61,	-7552
▁HAD	-7553
▁Hon	-7554
▁Jay	-7555
▁LMS	-7556
▁Ric	-7557
▁Sus	-7558
▁TDP	-7559
▁ale	-7560
▁die	-7561
▁dur	-7562
▁ell	-7563
▁gdp	-7564
▁len	-7565
▁ply	-7566
▁sil	-7567
lines	-7568
width	-7569
▁(13)	-7570
▁1-0?	-7571
▁1937	-7572
▁4:00	-7573
▁Chen	-7574
▁Eric	-7575
▁Fort	-7576
▁Leon	-7577
▁PSIP	-7578
▁Sept	-7579
▁Tele	-7580
▁astr	-7581
▁bang	-7582
▁bike	-7583
▁died	-7584
▁fort	-7585
▁gene	-7586
▁hong	-7587
▁mans	-7588
▁ment	-7589
▁past	-7590
▁rams	-7591
▁uses	-7592
ighton	-7593
ipment	-7594
isions	-7595
iverse	-7596
▁1,000	-7597
▁10-11	-7598
▁2010/	-7599
▁Board	-7600
▁Feder	-7601
▁creek	-7602
▁czech	-7603
▁feder	-7604
▁roman	-7605
▁small	-7606
▁wells	-7607
▁Aspect	-7608
▁Carlos	-7609
▁Denver	-7610
▁Killed	-7611
▁Latest	-7612
▁Modern	-7613
▁NUMBER	-7614
▁Spouse	-7615
▁Stuart	-7616
▁Wilson	-7617
▁letter	-7618
▁middle	-7619
▁nelson	-7620
▁strike	-7621
cheduled	-7622
▁2006-07	-7623
▁Calgary	-7624
▁Control	-7625
▁Iceland	-7626
▁Philipp	-7627
▁batting	-7628
▁compete	-7629
▁created	-7630
▁females	-7631
▁vikings	-7632
▁visited	-7633
americana	-7634
olleyball	-7635
▁Maserati	-7636
▁Scottish	-7637
▁Stations	-7638
▁atlantic	-7639
▁audition	-7640
▁canadian	-7641
▁children	-7642
▁coliseum	-7643
▁finishes	-7644
▁maryland	-7645
▁mercedes	-7646
▁Brunswick	-7647
▁Unopposed	-7648
▁Wimbledon	-7649
▁defending	-7650
▁panelists	-7651
▁preserved	-7652
▁Binibining	-7653
▁motorsport	-7654
▁prominence	-7655
▁Mississippi	-7656
▁mississippi	-7657
▁Presentation	-7658
▁commissioned	-7659
/7	-7660
CD	-7661
EK	-7662
IE	-7663
IL	-7664
[|	-7665
[›	-7666
]]	-7667
ei	-7668
ek	-7669
és	-7670
.78	-7671
/04	-7672
700	-7673
805	-7674
ICK	-7675
INT	-7676
eda	-7677
eta	-7678
oku	-7679
ová	-7680
ppe	-7681
rol	-7682
sal	-7683
top	-7684
uno	-7685
vik	-7686
▁(°	-7687
▁HC	-7688
▁HP	-7689
▁Ru	-7690
▁Us	-7691
▁Vo	-7692
▁ax	-7693
▁bc	-7694
▁os	-7695
/199	-7696
agen	-7697
azar	-7698
code	-7699
days	-7700
hatt	-7701
iani	-7702
imir	-7703
indi	-7704
mund	-7705
pped	-7706
rich	-7707
scri	-7708
umed	-7709
▁137	-7710
▁159	-7711
▁166	-7712
▁41?	-7713
▁42,	-7714
▁56,	-7715
▁57,	-7716
▁6.9	-7717
▁7–5	-7718
▁Bol	-7719
▁Box	-7720
▁Boy	-7721
▁But	-7722
▁CPU	-7723
▁Fig	-7724
▁Jew	-7725
▁Lie	-7726
▁MLB	-7727
▁Rod	-7728
▁Süd	-7729
▁You	-7730
▁afc	-7731
▁fle	-7732
▁hel	-7733
▁imp	-7734
▁rac	-7735
▁sak	-7736
▁sir	-7737
▁tun	-7738
2000)	-7739
Trans	-7740
adion	-7741
andle	-7742
chess	-7743
class	-7744
emble	-7745
emple	-7746
ensen	-7747
error	-7748
grade	-7749
ianza	-7750
igner	-7751
marks	-7752
olves	-7753
orary	-7754
ucati	-7755
udges	-7756
union	-7757
▁(110	-7758
▁(77)	-7759
▁1926	-7760
▁3:30	-7761
▁Beat	-7762
▁Case	-7763
▁Circ	-7764
▁Conv	-7765
▁Drop	-7766
▁LNER	-7767
▁Lock	-7768
▁Made	-7769
▁Mass	-7770
▁Sean	-7771
▁Vice	-7772
▁arab	-7773
▁cycl	-7774
▁gonz	-7775
▁hour	-7776
▁pier	-7777
▁vari	-7778
▁whit	-7779
essive	-7780
iddles	-7781
opical	-7782
ouples	-7783
strong	-7784
ussels	-7785
ymnast	-7786
ánchez	-7787
▁(0-1)	-7788
▁11.11	-7789
▁2003,	-7790
▁2012/	-7791
▁Balls	-7792
▁Effic	-7793
▁Guard	-7794
▁Leeds	-7795
▁Liter	-7796
▁Night	-7797
▁Overs	-7798
▁Prime	-7799
▁begin	-7800
▁colts	-7801
▁tokyo	-7802
enguins	-7803
roatian	-7804
tribute	-7805
▁(2005)	-7806
▁2008–0	-7807
▁Arrang	-7808
▁Gordon	-7809
▁Moscow	-7810
▁PLAYER	-7811
▁Rowers	-7812
▁Saints	-7813
▁blocks	-7814
▁soviet	-7815
▁viewed	-7816
▁walker	-7817
emocrats	-7818
▁Falcons	-7819
▁Project	-7820
▁Theatre	-7821
▁dollars	-7822
▁madison	-7823
▁tourism	-7824
▁tourist	-7825
▁Ballarat	-7826
▁Ceremony	-7827
▁Oberliga	-7828
▁ceremony	-7829
employment	-7830
▁Employees	-7831
▁Household	-7832
▁Wanderers	-7833
▁attending	-7834
▁contested	-7835
▁wednesday	-7836
▁Background	-7837
▁Pictorials	-7838
▁Qualifying	-7839
▁experience	-7840
▁opposition	-7841
▁spectators	-7842
▁participate	-7843
▁Transliteration	-7844
DT	-7845
No	-7846
lu	-7847
zi	-7848
.08	-7849
.31	-7850
.87	-7851
.90	-7852
/06	-7853
900	-7854
UTC	-7855
mat	-7856
osp	-7857
rum	-7858
–21	-7859
▁(+	-7860
▁CF	-7861
▁LA	-7862
▁vi	-7863
-11?	-7864
-2)?	-7865
-25?	-7866
adal	-7867
ango	-7868
chan	-7869
enth	-7870
hood	-7871
▁(13	-7872
▁154	-7873
▁183	-7874
▁184	-7875
▁3.4	-7876
▁44?	-7877
▁45?	-7878
▁46,	-7879
▁6-3	-7880
▁6.8	-7881
▁68,	-7882
▁73,	-7883
▁8.2	-7884
▁9.1	-7885
▁Bat	-7886
▁Cub	-7887
▁FSB	-7888
▁Fra	-7889
▁INT	-7890
▁Kaz	-7891
▁Les	-7892
▁Mun	-7893
▁Rad	-7894
▁Rub	-7895
▁Tak	-7896
▁ban	-7897
▁dun	-7898
▁fer	-7899
▁imm	-7900
▁mun	-7901
▁sav	-7902
▁vin	-7903
-66=2	-7904
aging	-7905
amous	-7906
built	-7907
celer	-7908
eball	-7909
ences	-7910
hawks	-7911
inner	-7912
issue	-7913
night	-7914
rease	-7915
▁(14)	-7916
▁1929	-7917
▁1949	-7918
▁1:01	-7919
▁2-1?	-7920
▁Andy	-7921
▁Hear	-7922
▁Prob	-7923
▁Sail	-7924
▁YEAR	-7925
▁barb	-7926
▁case	-7927
▁dead	-7928
▁hale	-7929
▁hunt	-7930
▁jazz	-7931
▁josh	-7932
▁well	-7933
-69=27	-7934
Parish	-7935
ahawks	-7936
atinum	-7937
drawal	-7938
rolled	-7939
▁12:30	-7940
▁1967?	-7941
▁2012,	-7942
▁Hanja	-7943
▁Jacob	-7944
▁Mayor	-7945
▁Press	-7946
▁Stars	-7947
▁Wayne	-7948
▁Width	-7949
▁among	-7950
▁citiz	-7951
▁colin	-7952
▁gener	-7953
▁jacob	-7954
▁known	-7955
▁relay	-7956
▁video	-7957
▁vijay	-7958
▁watts	-7959
▁works	-7960
amilies	-7961
ixtures	-7962
ression	-7963
▁(2000)	-7964
▁Bishop	-7965
▁Chiefs	-7966
▁Dublin	-7967
▁Eagles	-7968
▁Throws	-7969
▁assemb	-7970
▁bishop	-7971
▁expect	-7972
▁madrid	-7973
▁morris	-7974
▁parent	-7975
▁rovers	-7976
▁snatch	-7977
▁target	-7978
▁vessel	-7979
ological	-7980
▁Musical	-7981
▁alabama	-7982
▁arsenal	-7983
▁belgium	-7984
▁borough	-7985
▁chinese	-7986
▁cricket	-7987
▁denmark	-7988
▁falcons	-7989
▁married	-7990
▁mintage	-7991
▁natural	-7992
▁package	-7993
▁program	-7994
▁project	-7995
▁rebound	-7996
▁tickets	-7997
formation	-7998
▁Anderson	-7999
▁Athletic	-8000
▁Children	-8001
▁arkansas	-8002
▁attempts	-8003
▁jonathan	-8004
▁scuderia	-8005
▁sequence	-8006
▁thompson	-8007
▁townland	-8008
▁athletics	-8009
▁elections	-8010
▁premiered	-8011
▁Appearance	-8012
▁publication	-8013
./	-8014
GR	-8015
aq	-8016
tz	-8017
zy	-8018
ør	-8019
▁ə	-8020
-35	-8021
-93	-8022
.51	-8023
.60	-8024
.80	-8025
.82	-8026
.93	-8027
08?	-8028
10?	-8029
UND	-8030
asa	-8031
avi	-8032
bil	-8033
cul	-8034
lim	-8035
oca	-8036
oga	-8037
ppa	-8038
rez	-8039
uma	-8040
uri	-8041
vor	-8042
yrk	-8043
–4?	-8044
▁DR	-8045
▁||	-8046
:00?	-8047
SPAR	-8048
ablo	-8049
aldo	-8050
alem	-8051
avor	-8052
egas	-8053
gart	-8054
iber	-8055
idae	-8056
igel	-8057
link	-8058
ming	-8059
osen	-8060
oshi	-8061
owed	-8062
ugal	-8063
unny	-8064
vine	-8065
–201	-8066
▁(£)	-8067
▁0-0	-8068
▁139	-8069
▁146	-8070
▁16:	-8071
▁1⁄2	-8072
▁208	-8073
▁2–6	-8074
▁46?	-8075
▁5-1	-8076
▁5.7	-8077
▁55,	-8078
▁69,	-8079
▁Bec	-8080
▁Lim	-8081
▁Mic	-8082
▁Mus	-8083
▁SEC	-8084
▁Six	-8085
▁Tel	-8086
▁aaa	-8087
▁atp	-8088
▁cfl	-8089
▁dav	-8090
▁dnf	-8091
▁luc	-8092
▁mak	-8093
▁pot	-8094
▁sid	-8095
▁wel	-8096
▁wta	-8097
ATION	-8098
ITION	-8099
aheim	-8100
etime	-8101
front	-8102
icted	-8103
itect	-8104
ittip	-8105
neuve	-8106
olade	-8107
onnie	-8108
orgen	-8109
stown	-8110
uerto	-8111
ulton	-8112
umbus	-8113
unist	-8114
▁(16)	-8115
▁(20)	-8116
▁(27)	-8117
▁1944	-8118
▁1–6,	-8119
▁9.11	-8120
▁Barb	-8121
▁Burn	-8122
▁Disp	-8123
▁Fair	-8124
▁Jess	-8125
▁Shot	-8126
▁Spec	-8127
▁Thai	-8128
▁Turn	-8129
▁VIII	-8130
▁clim	-8131
▁cole	-8132
▁done	-8133
▁fiji	-8134
▁laid	-8135
▁suns	-8136
▁your	-8137
-69=13	-8138
-70=27	-8139
entium	-8140
errick	-8141
intend	-8142
irates	-8143
onsors	-8144
ornell	-8145
ourney	-8146
ovenes	-8147
reased	-8148
ucture	-8149
wegian	-8150
▁10.11	-8151
▁1955?	-8152
▁27-29	-8153
▁Bears	-8154
▁Bruce	-8155
▁Hanzi	-8156
▁Movie	-8157
▁Paris	-8158
▁Undec	-8159
▁Upper	-8160
▁allen	-8161
▁break	-8162
▁clock	-8163
▁corre	-8164
▁destr	-8165
▁eddie	-8166
▁gloss	-8167
▁larry	-8168
▁leafs	-8169
▁loser	-8170
▁pages	-8171
▁spart	-8172
▁stade	-8173
▁terry	-8174
▁turbo	-8175
▁wayne	-8176
▁weigh	-8177
Drivers	-8178
ensions	-8179
hampton	-8180
iciency	-8181
onsored	-8182
urrency	-8183
▁Active	-8184
▁Austin	-8185
▁Barrel	-8186
▁COSPAR	-8187
▁Dakota	-8188
▁Darren	-8189
▁Doctor	-8190
▁Hangul	-8191
▁Korean	-8192
▁Polish	-8193
▁Singer	-8194
▁Single	-8195
▁Tigers	-8196
▁cooper	-8197
▁dancer	-8198
▁demand	-8199
▁gordon	-8200
▁manuel	-8201
▁mother	-8202
▁movies	-8203
▁oregon	-8204
▁social	-8205
▁stable	-8206
▁steals	-8207
▁tenure	-8208
ampshire	-8209
asmussen	-8210
emporary	-8211
inthians	-8212
▁2005-06	-8213
▁2005–06	-8214
▁2008–09	-8215
▁Broncos	-8216
▁Figures	-8217
▁Foreign	-8218
▁Forward	-8219
▁defence	-8220
▁finland	-8221
▁jacques	-8222
▁mclaren	-8223
▁payload	-8224
▁through	-8225
▁univers	-8226
illeneuve	-8227
ittipaldi	-8228
penditure	-8229
▁Electric	-8230
▁Memorial	-8231
▁averages	-8232
▁campbell	-8233
▁northern	-8234
▁producer	-8235
▁starting	-8236
▁Passenger	-8237
▁nicknamed	-8238
▁territory	-8239
oreographer	-8240
▁Discipline	-8241
▁Nomination	-8242
▁Occupation	-8243
▁basketball	-8244
▁characters	-8245
▁deficiency	-8246
▁viewership	-8247
▁Motorsports	-8248
▁corporation	-8249
▁Saskatchewan	-8250
HA	-8251
MB	-8252
MT	-8253
WA	-8254
kh	-8255
pi	-8256
sq	-8257
во	-8258
-34	-8259
-4)	-8260
-84	-8261
-87	-8262
-92	-8263
.36	-8264
.48	-8265
/14	-8266
07?	-8267
AGE	-8268
ANK	-8269
lap	-8270
nie	-8271
pts	-8272
unk	-8273
usa	-8274
zer	-8275
▁(€	-8276
▁6'	-8277
▁BY	-8278
▁HK	-8279
▁OS	-8280
▁PI	-8281
▁RB	-8282
▁ay	-8283
▁dx	-8284
▁fo	-8285
▁ib	-8286
▁po	-8287
▁rb	-8288
▁xi	-8289
atic	-8290
bass	-8291
elia	-8292
giro	-8293
hell	-8294
ichi	-8295
iffe	-8296
illy	-8297
term	-8298
▁134	-8299
▁143	-8300
▁144	-8301
▁152	-8302
▁165	-8303
▁1–2	-8304
▁220	-8305
▁255	-8306
▁3–1	-8307
▁9.9	-8308
▁Ale	-8309
▁Beh	-8310
▁Cab	-8311
▁Cos	-8312
▁Fer	-8313
▁GPU	-8314
▁Luc	-8315
▁Mah	-8316
▁Pap	-8317
▁Pav	-8318
▁Tag	-8319
▁abd	-8320
▁dat	-8321
▁div	-8322
▁els	-8323
▁geo	-8324
▁lad	-8325
▁nom	-8326
▁pas	-8327
▁son	-8328
State	-8329
aoise	-8330
ckout	-8331
inees	-8332
iness	-8333
prene	-8334
ughes	-8335
years	-8336
▁1928	-8337
▁1935	-8338
▁1947	-8339
▁3–6?	-8340
▁Card	-8341
▁Cole	-8342
▁Cycl	-8343
▁Diff	-8344
▁Gene	-8345
▁Marc	-8346
▁Pens	-8347
▁celt	-8348
▁disp	-8349
▁doug	-8350
▁drew	-8351
▁fare	-8352
▁kong	-8353
▁link	-8354
▁mort	-8355
▁rush	-8356
alties	-8357
ighter	-8358
ismiss	-8359
ivered	-8360
▁08-09	-8361
▁1960?	-8362
▁1980?	-8363
▁70-68	-8364
▁Barry	-8365
▁Crime	-8366
▁Jerry	-8367
▁Roger	-8368
▁Sacks	-8369
▁Taper	-8370
▁Voice	-8371
▁Wells	-8372
▁belle	-8373
▁casey	-8374
▁damon	-8375
▁floor	-8376
▁holes	-8377
▁human	-8378
▁irwin	-8379
▁kelly	-8380
▁knows	-8381
▁minor	-8382
▁monte	-8383
▁telev	-8384
▁woods	-8385
ipients	-8386
lippers	-8387
nection	-8388
▁Became	-8389
▁Before	-8390
▁Justin	-8391
▁Livery	-8392
▁Murray	-8393
▁Nordic	-8394
▁Palmer	-8395
▁Tenure	-8396
▁chiefs	-8397
▁colour	-8398
▁deport	-8399
▁tennis	-8400
aoiseach	-8401
▁Actress	-8402
▁Feature	-8403
▁Members	-8404
▁Nations	-8405
▁Retired	-8406
▁Vikings	-8407
▁economy	-8408
▁engines	-8409
▁rockets	-8410
▁theatre	-8411
ismissals	-8412
▁Chargers	-8413
▁Congress	-8414
▁Coverage	-8415
▁Cultural	-8416
▁Industry	-8417
▁Northern	-8418
▁Portland	-8419
▁domestic	-8420
▁failures	-8421
▁internet	-8422
▁reporter	-8423
▁santiago	-8424
▁thursday	-8425
▁villages	-8426
▁Municipal	-8427
▁cardinals	-8428
▁developer	-8429
▁liverpool	-8430
▁publisher	-8431
▁selection	-8432
▁semifinals	-8433
▁Educational	-8434
▁Preliminary	-8435
▁Traditional	-8436
▁cosponsored	-8437
▁independent	-8438
▁percentages	-8439
▁Transmission	-8440
▁manufactured	-8441
▁entertainment	-8442
▁massachusetts	-8443
)@	-8444
1%	-8445
3%	-8446
EL	-8447
PS	-8448
SS	-8449
UL	-8450
sm	-8451
ás	-8452
ан	-8453
▁\	-8454
▁→	-8455
.30	-8456
.49	-8457
.54	-8458
.64	-8459
.70	-8460
333	-8461
IGH	-8462
VER	-8463
aru	-8464
bra	-8465
dam	-8466
ety	-8467
hai	-8468
igo	-8469
ily	-8470
mas	-8471
reb	-8472
ska	-8473
vit	-8474
–05	-8475
–5?	-8476
▁+8	-8477
▁AC	-8478
▁DX	-8479
▁GA	-8480
▁Sk	-8481
▁Wr	-8482
▁ec	-8483
▁mu	-8484
▁ok	-8485
▁sg	-8486
▁ye	-8487
.200	-8488
.95?	-8489
abri	-8490
agar	-8491
alla	-8492
athy	-8493
erek	-8494
ereo	-8495
ghan	-8496
illo	-8497
imon	-8498
ints	-8499
ková	-8500
odge	-8501
ombe	-8502
ovan	-8503
team	-8504
–49)	-8505
▁(19	-8506
▁(69	-8507
▁158	-8508
▁162	-8509
▁176	-8510
▁20'	-8511
▁274	-8512
▁3–0	-8513
▁48?	-8514
▁58,	-8515
▁6.0	-8516
▁Dav	-8517
▁Dri	-8518
▁Fel	-8519
▁Ger	-8520
▁Hyd	-8521
▁Ing	-8522
▁Ips	-8523
▁Job	-8524
▁LMP	-8525
▁MAN	-8526
▁McD	-8527
▁McN	-8528
▁[10	-8529
▁aff	-8530
▁bit	-8531
▁bro	-8532
▁cav	-8533
▁cod	-8534
▁ens	-8535
▁fed	-8536
▁joh	-8537
▁kat	-8538
▁leb	-8539
▁rap	-8540
agner	-8541
anced	-8542
brook	-8543
ccane	-8544
cents	-8545
cular	-8546
icans	-8547
icens	-8548
irgin	-8549
itial	-8550
itoba	-8551
lboro	-8552
tical	-8553
velty	-8554
▁(117	-8555
▁0.16	-8556
▁10.5	-8557
▁100+	-8558
▁15.9	-8559
▁Alli	-8560
▁Cash	-8561
▁Cook	-8562
▁DCSF	-8563
▁Drew	-8564
▁Fern	-8565
▁Laur	-8566
▁RANK	-8567
▁Soft	-8568
▁Supp	-8569
▁View	-8570
▁boys	-8571
▁drop	-8572
▁horn	-8573
▁marg	-8574
▁note	-8575
▁rose	-8576
▁solo	-8577
▁tons	-8578
▁viet	-8579
-67=27	-8580
-70=14	-8581
0,000?	-8582
brough	-8583
encing	-8584
ercise	-8585
hattan	-8586
istics	-8587
pinion	-8588
retary	-8589
tenham	-8590
ugatti	-8591
useppe	-8592
vement	-8593
▁11.13	-8594
▁1970?	-8595
▁1972?	-8596
▁Entre	-8597
▁Giant	-8598
▁Greek	-8599
▁Korea	-8600
▁Premi	-8601
▁ROUND	-8602
▁Staff	-8603
▁Video	-8604
▁aaron	-8605
▁cargo	-8606
▁categ	-8607
▁colon	-8608
▁danny	-8609
▁error	-8610
▁evans	-8611
▁girls	-8612
▁inaug	-8613
▁items	-8614
▁jamie	-8615
▁marsh	-8616
▁shell	-8617
▁tommy	-8618
acional	-8619
country	-8620
embourg	-8621
ennifer	-8622
issions	-8623
stadion	-8624
▁(2007)	-8625
▁1995-9	-8626
▁Johnny	-8627
▁Ottawa	-8628
▁Parent	-8629
▁Safari	-8630
▁Tonnes	-8631
▁cities	-8632
▁lakers	-8633
▁suzuki	-8634
ccaneers	-8635
▁Denmark	-8636
▁Entries	-8637
▁Indians	-8638
▁Neutral	-8639
▁Scoring	-8640
▁destroy	-8641
▁dragons	-8642
▁olivier	-8643
▁russell	-8644
lessandro	-8645
▁Audition	-8646
▁Marriage	-8647
▁Speedway	-8648
▁Thompson	-8649
▁Wildcats	-8650
▁complete	-8651
▁congress	-8652
▁contains	-8653
▁enrolled	-8654
▁included	-8655
▁standing	-8656
▁winnipeg	-8657
contestant	-8658
▁Assembled	-8659
▁Operating	-8660
▁Taoiseach	-8661
▁Undecided	-8662
▁cancelled	-8663
▁municipal	-8664
▁newcastle	-8665
▁electorate	-8666
▁expectancy	-8667
▁schumacher	-8668
iddlesbrough	-8669
▁engineering	-8670
▁motorsports	-8671
▁Accreditation	-8672
CH	-8673
FR	-8674
UB	-8675
lm	-8676
rr	-8677
ré	-8678
ww	-8679
-88	-8680
-89	-8681
-90	-8682
.1,	-8683
.79	-8684
19,	-8685
cla	-8686
hat	-8687
ken	-8688
oka	-8689
say	-8690
sur	-8691
tor	-8692
▁$6	-8693
▁$7	-8694
▁),	-8695
▁-3	-8696
▁CA	-8697
▁CL	-8698
▁Es	-8699
▁Pa	-8700
▁Ul	-8701
▁bi	-8702
▁om	-8703
-100	-8704
-21?	-8705
-49)	-8706
Died	-8707
ever	-8708
icia	-8709
incl	-8710
izon	-8711
lend	-8712
omer	-8713
pert	-8714
umst	-8715
unga	-8716
yaar	-8717
yard	-8718
ynch	-8719
▁(48	-8720
▁1,3	-8721
▁167	-8722
▁179	-8723
▁2-6	-8724
▁2.2	-8725
▁202	-8726
▁297	-8727
▁39?	-8728
▁49?	-8729
▁Aff	-8730
▁Ban	-8731
▁Dis	-8732
▁Inf	-8733
▁Moh	-8734
▁PCT	-8735
▁Reb	-8736
▁Sep	-8737
▁Spo	-8738
▁UTC	-8739
▁bah	-8740
▁dub	-8741
▁due	-8742
▁ern	-8743
▁fil	-8744
▁fra	-8745
▁hew	-8746
▁hus	-8747
▁kot	-8748
▁kwh	-8749
▁mod	-8750
▁mol	-8751
▁pct	-8752
▁rus	-8753
ansen	-8754
eland	-8755
espan	-8756
force	-8757
inder	-8758
itter	-8759
ixels	-8760
jured	-8761
lient	-8762
odiac	-8763
orted	-8764
uburn	-8765
usted	-8766
vival	-8767
▁100%	-8768
▁1900	-8769
▁Gill	-8770
▁Jays	-8771
▁Liga	-8772
▁Rest	-8773
▁Ring	-8774
▁Soap	-8775
▁dani	-8776
▁dual	-8777
▁fund	-8778
▁grad	-8779
▁gran	-8780
▁into	-8781
▁mess	-8782
▁neil	-8783
▁news	-8784
▁sail	-8785
-71-70	-8786
africa	-8787
iggins	-8788
ooting	-8789
rexham	-8790
rosoft	-8791
utions	-8792
▁(2000	-8793
▁1953?	-8794
▁1963?	-8795
▁2007/	-8796
▁Allen	-8797
▁Derby	-8798
▁Earth	-8799
▁Hindu	-8800
▁Human	-8801
▁Image	-8802
▁Keith	-8803
▁Light	-8804
▁Maple	-8805
▁Spart	-8806
▁blues	-8807
▁cable	-8808
▁hydro	-8809
▁leeds	-8810
▁marco	-8811
▁pedro	-8812
▁phase	-8813
▁reign	-8814
▁robin	-8815
▁ships	-8816
▁spent	-8817
▁tight	-8818
icester	-8819
preneur	-8820
▁Berlin	-8821
▁Choice	-8822
▁Devils	-8823
▁Donald	-8824
▁Flyers	-8825
▁Little	-8826
▁Locale	-8827
▁Middle	-8828
▁Morgan	-8829
▁Reserv	-8830
▁bumped	-8831
▁carter	-8832
▁curtis	-8833
▁freder	-8834
▁labour	-8835
▁palmer	-8836
▁prince	-8837
▁return	-8838
▁2011-12	-8839
▁Edwards	-8840
▁Express	-8841
▁Memphis	-8842
▁Monarch	-8843
▁Oakland	-8844
▁Skipper	-8845
▁crystal	-8846
▁express	-8847
▁profits	-8848
▁roberts	-8849
▁Atlantic	-8850
▁Coliseum	-8851
▁Facility	-8852
▁POSITION	-8853
▁Pakistan	-8854
▁atlético	-8855
▁counties	-8856
▁democrat	-8857
▁olympics	-8858
▁resigned	-8859
▁security	-8860
▁thousand	-8861
▁warriors	-8862
▁Worldwide	-8863
▁elizabeth	-8864
▁Glenferrie	-8865
▁Introduced	-8866
▁Schumacher	-8867
▁convention	-8868
▁Acquisition	-8869
▁Application	-8870
▁Association	-8871
▁Publication	-8872
▁Switzerland	-8873
▁Denomination	-8874
▁competitions	-8875
▁registration	-8876
//	-8877
:0	-8878
JC	-8879
MI	-8880
oi	-8881
po	-8882
vy	-8883
ño	-8884
▁á	-8885
30,	-8886
://	-8887
IAA	-8888
ICH	-8889
Int	-8890
aar	-8891
ahl	-8892
aij	-8893
dec	-8894
edo	-8895
ibr	-8896
mma	-8897
nia	-8898
obe	-8899
omi	-8900
ono	-8901
oux	-8902
rig	-8903
ttp	-8904
wis	-8905
▁"?	-8906
▁+0	-8907
▁AR	-8908
▁CC	-8909
▁DN	-8910
▁DW	-8911
▁FR	-8912
▁MJ	-8913
▁PC	-8914
▁RU	-8915
▁SL	-8916
▁gb	-8917
▁mt	-8918
▁og	-8919
▁sd	-8920
adow	-8921
aily	-8922
alty	-8923
anie	-8924
anka	-8925
aret	-8926
aria	-8927
aten	-8928
atta	-8929
avia	-8930
dome	-8931
ecil	-8932
enez	-8933
fers	-8934
iled	-8935
mate	-8936
mont	-8937
more	-8938
nold	-8939
omes	-8940
onde	-8941
quet	-8942
read	-8943
roid	-8944
star	-8945
ugen	-8946
umul	-8947
yuns	-8948
–196	-8949
▁(40	-8950
▁(45	-8951
▁(95	-8952
▁+10	-8953
▁149	-8954
▁19'	-8955
▁205	-8956
▁234	-8957
▁310	-8958
▁36?	-8959
▁4.7	-8960
▁5-0	-8961
▁50?	-8962
▁6.4	-8963
▁6.6	-8964
▁Cur	-8965
▁Eth	-8966
▁FIN	-8967
▁Kle	-8968
▁Lew	-8969
▁Num	-8970
▁Ord	-8971
▁REC	-8972
▁Rio	-8973
▁Sav	-8974
▁Tuj	-8975
▁env	-8976
▁fit	-8977
▁guy	-8978
▁kan	-8979
▁lif	-8980
▁mul	-8981
▁say	-8982
▁sud	-8983
▁sup	-8984
▁veh	-8985
▁von	-8986
-2010	-8987
apest	-8988
carlo	-8989
iance	-8990
icine	-8991
icken	-8992
ipset	-8993
istic	-8994
oller	-8995
olver	-8996
ottom	-8997
uttle	-8998
yrkje	-8999
▁(115	-9000
▁(71)	-9001
▁(74)	-9002
▁(84)	-9003
▁12.9	-9004
▁1200	-9005
▁1936	-9006
▁7–5?	-9007
▁7–6,	-9008
▁9.12	-9009
▁Brig	-9010
▁Cham	-9011
▁Fail	-9012
▁Gall	-9013
▁Juan	-9014
▁Moto	-9015
▁Navy	-9016
▁Past	-9017
▁Quad	-9018
▁Sele	-9019
▁Tack	-9020
▁alan	-9021
▁burn	-9022
▁cart	-9023
▁cong	-9024
▁copa	-9025
▁dome	-9026
▁duke	-9027
▁find	-9028
▁flag	-9029
▁goes	-9030
▁http	-9031
▁late	-9032
▁prim	-9033
▁rain	-9034
▁rang	-9035
▁shin	-9036
▁stop	-9037
▁trin	-9038
-68=14	-9039
-73=14	-9040
Metres	-9041
aliers	-9042
allara	-9043
amento	-9044
anches	-9045
ayette	-9046
esliga	-9047
ielsen	-9048
kinson	-9049
ounced	-9050
steros	-9051
uction	-9052
▁10.12	-9053
▁12.10	-9054
▁1958?	-9055
▁1975?	-9056
▁69-70	-9057
▁Evans	-9058
▁Hindi	-9059
▁Storm	-9060
▁camer	-9061
▁chang	-9062
▁elect	-9063
▁large	-9064
▁liter	-9065
▁overs	-9066
▁perth	-9067
▁wings	-9068
Episode	-9069
anetics	-9070
flation	-9071
ibution	-9072
ickness	-9073
ladimir	-9074
nerback	-9075
punches	-9076
▁Arthur	-9077
▁Israel	-9078
▁Letter	-9079
▁Monaco	-9080
▁Rocket	-9081
▁Rovers	-9082
▁Soccer	-9083
▁athens	-9084
▁dennis	-9085
▁medium	-9086
▁plural	-9087
▁rights	-9088
▁string	-9089
Quantity	-9090
onductor	-9091
ortrayed	-9092
ungarian	-9093
▁(18–49)	-9094
▁Females	-9095
▁Maximum	-9096
▁Players	-9097
▁Raymond	-9098
▁Renault	-9099
▁Wallace	-9100
▁chelsea	-9101
▁pacific	-9102
▁philipp	-9103
▁pitcher	-9104
▁porsche	-9105
▁poverty	-9106
▁regions	-9107
▁stanley	-9108
▁without	-9109
unanimous	-9110
▁Athletes	-9111
▁Campbell	-9112
▁Incoming	-9113
▁Lawrence	-9114
▁Meetings	-9115
▁achieved	-9116
▁argument	-9117
▁malaysia	-9118
▁nominees	-9119
▁playmate	-9120
▁Billboard	-9121
▁Countries	-9122
▁Democrats	-9123
▁Equipment	-9124
▁Liverpool	-9125
▁qualifier	-9126
▁Department	-9127
▁Fatalities	-9128
▁Motorsport	-9129
▁Portuguese	-9130
▁Semifinals	-9131
▁Supporting	-9132
▁Technology	-9133
▁membership	-9134
▁parliament	-9135
yunsaturated	-9136
▁Independent	-9137
▁Prohibition	-9138
▁Libertadores	-9139
▁Qualification	-9140
▁quarterfinals	-9141
Be	-9142
It	-9143
KO	-9144
PI	-9145
pf	-9146
▁г	-9147
-5,	-9148
-78	-9149
-9?	-9150
.2,	-9151
.68	-9152
.84	-9153
.88	-9154
.98	-9155
/16	-9156
126	-9157
30)	-9158
gas	-9159
iii	-9160
nis	-9161
oki	-9162
pop	-9163
won	-9164
zon	-9165
–24	-9166
▁#?	-9167
▁%)	-9168
▁5%	-9169
▁GB	-9170
▁IP	-9171
▁Mi	-9172
▁NY	-9173
▁Ni	-9174
▁PS	-9175
▁Uk	-9176
▁aj	-9177
▁dw	-9178
▁ic	-9179
▁ku	-9180
▁lt	-9181
▁pf	-9182
▁rd	-9183
▁sv	-9184
-05?	-9185
-101	-9186
500?	-9187
amas	-9188
ayan	-9189
comp	-9190
enne	-9191
fred	-9192
imen	-9193
lock	-9194
mary	-9195
tion	-9196
uela	-9197
▁(68	-9198
▁157	-9199
▁206	-9200
▁213	-9201
▁216	-9202
▁225	-9203
▁229	-9204
▁240	-9205
▁43?	-9206
▁69?	-9207
▁7.3	-9208
▁700	-9209
▁75,	-9210
▁Bog	-9211
▁Fab	-9212
▁Fif	-9213
▁Kat	-9214
▁PGA	-9215
▁Rep	-9216
▁Sea	-9217
▁Tax	-9218
▁UCI	-9219
▁Vel	-9220
▁Ven	-9221
▁Vin	-9222
▁apr	-9223
▁bos	-9224
▁ice	-9225
▁moh	-9226
▁nan	-9227
▁rah	-9228
▁sex	-9229
▁tan	-9230
▁tul	-9231
▁vas	-9232
South	-9233
ained	-9234
aller	-9235
antes	-9236
ctory	-9237
eders	-9238
enced	-9239
ldogs	-9240
maker	-9241
mical	-9242
regon	-9243
speed	-9244
▁(55)	-9245
▁(81)	-9246
▁(91)	-9247
▁1-3?	-9248
▁10.9	-9249
▁140+	-9250
▁1600	-9251
▁2-0?	-9252
▁Bear	-9253
▁Dist	-9254
▁Duke	-9255
▁Ever	-9256
▁Josh	-9257
▁Neil	-9258
▁Poor	-9259
▁Prec	-9260
▁Stud	-9261
▁WHEN	-9262
▁dale	-9263
▁eric	-9264
▁fair	-9265
▁jama	-9266
▁jury	-9267
▁kbit	-9268
▁laur	-9269
▁luis	-9270
▁marc	-9271
▁pers	-9272
▁ring	-9273
▁rosa	-9274
-74=28	-9275
ceeded	-9276
driver	-9277
enship	-9278
urning	-9279
wealth	-9280
▁(77)?	-9281
▁0-6-0	-9282
▁11.14	-9283
▁2006/	-9284
▁21-22	-9285
▁Aaron	-9286
▁Build	-9287
▁Court	-9288
▁Czech	-9289
▁Karen	-9290
▁Leafs	-9291
▁Miles	-9292
▁Minor	-9293
▁Rally	-9294
▁Worst	-9295
▁again	-9296
▁along	-9297
▁amend	-9298
▁audio	-9299
▁board	-9300
▁holds	-9301
▁metal	-9302
▁ports	-9303
▁rated	-9304
▁still	-9305
▁units	-9306
▁villa	-9307
English	-9308
ailroad	-9309
icholas	-9310
ography	-9311
olished	-9312
ricanes	-9313
▁(1000)	-9314
▁Actual	-9315
▁Attend	-9316
▁Campus	-9317
▁Canton	-9318
▁Forest	-9319
▁Jeremy	-9320
▁Marcus	-9321
▁Norman	-9322
▁Rivers	-9323
▁Walker	-9324
▁albums	-9325
▁around	-9326
▁arthur	-9327
▁deacon	-9328
▁execut	-9329
▁forces	-9330
▁hunter	-9331
▁libert	-9332
▁palace	-9333
▁pinyin	-9334
▁quebec	-9335
▁royals	-9336
▁tracks	-9337
▁within	-9338
junctive	-9339
▁(18-49)	-9340
▁2012–13	-9341
▁Airline	-9342
▁Clemson	-9343
▁Cowboys	-9344
▁Gregory	-9345
▁Machine	-9346
▁Playoff	-9347
▁academy	-9348
▁advance	-9349
▁canucks	-9350
▁monthly	-9351
▁protein	-9352
▁wounded	-9353
▁Dolphins	-9354
▁Examples	-9355
▁Kardinia	-9356
▁Placings	-9357
▁Services	-9358
▁Syracuse	-9359
▁Televote	-9360
▁Universe	-9361
▁Winnipeg	-9362
▁anderson	-9363
▁auckland	-9364
▁competed	-9365
▁delegate	-9366
▁entering	-9367
▁incident	-9368
▁incoming	-9369
▁industry	-9370
▁kawasaki	-9371
▁mitchell	-9372
▁platinum	-9373
▁robinson	-9374
▁Committee	-9375
▁cartridge	-9376
▁grizzlies	-9377
▁operating	-9378
▁Birmingham	-9379
▁Propulsion	-9380
▁Resolution	-9381
▁casualties	-9382
▁commission	-9383
▁government	-9384
▁Christopher	-9385
▁Connecticut	-9386
▁prothrombin	-9387
▁headquarters	-9388
▁transmission	-9389
▁Transcription	-9390
:5	-9391
GB	-9392
Oy	-9393
VE	-9394
ín	-9395
▁с	-9396
-33	-9397
-7,	-9398
-95	-9399
-99	-9400
/01	-9401
Pro	-9402
Sim	-9403
alm	-9404
bek	-9405
cca	-9406
cht	-9407
ffe	-9408
fus	-9409
ido	-9410
ija	-9411
ikk	-9412
jhl	-9413
kes	-9414
khz	-9415
kok	-9416
lbs	-9417
lez	-9418
mir	-9419
net	-9420
oir	-9421
olk	-9422
ols	-9423
ouk	-9424
sey	-9425
ulf	-9426
umm	-9427
www	-9428
yth	-9429
ánd	-9430
–18	-9431
–7?	-9432
▁"4	-9433
▁+5	-9434
▁+6	-9435
▁AU	-9436
▁BC	-9437
▁FK	-9438
▁Ga	-9439
▁HA	-9440
▁Ky	-9441
▁MO	-9442
▁OL	-9443
▁Si	-9444
▁WN	-9445
▁ah	-9446
▁gh	-9447
▁od	-9448
▁ou	-9449
▁td	-9450
▁wa	-9451
ANCE	-9452
Away	-9453
Comm	-9454
Mark	-9455
Oyly	-9456
Part	-9457
Yaar	-9458
ader	-9459
ammy	-9460
awar	-9461
away	-9462
endo	-9463
etta	-9464
ffen	-9465
high	-9466
hind	-9467
holm	-9468
icit	-9469
ieri	-9470
inos	-9471
jana	-9472
loyd	-9473
mslm	-9474
namb	-9475
onet	-9476
ophe	-9477
oran	-9478
rese	-9479
rien	-9480
unda	-9481
uten	-9482
zhou	-9483
▁(47	-9484
▁(71	-9485
▁(96	-9486
▁1,6	-9487
▁174	-9488
▁182	-9489
▁2-2	-9490
▁2-4	-9491
▁270	-9492
▁2–1	-9493
▁2–2	-9494
▁5.0	-9495
▁55?	-9496
▁63?	-9497
▁74,	-9498
▁978	-9499
▁AFC	-9500
▁Bra	-9501
▁Dun	-9502
▁ESP	-9503
▁Ens	-9504
▁Eur	-9505
▁Hel	-9506
▁Hur	-9507
▁Inc	-9508
▁Led	-9509
▁Mod	-9510
▁Sir	-9511
▁UFC	-9512
▁bbl	-9513
▁bou	-9514
▁cer	-9515
▁cru	-9516
▁fab	-9517
▁fro	-9518
▁gun	-9519
▁kon	-9520
▁lav	-9521
▁neg	-9522
▁nik	-9523
▁pun	-9524
▁rio	-9525
▁rnd	-9526
▁rot	-9527
▁see	-9528
▁way	-9529
afael	-9530
alers	-9531
asman	-9532
chair	-9533
elled	-9534
esley	-9535
ician	-9536
issol	-9537
jamin	-9538
lermo	-9539
ollen	-9540
ollow	-9541
ommel	-9542
onder	-9543
orian	-9544
ormal	-9545
ought	-9546
stick	-9547
▁(62)	-9548
▁0.00	-9549
▁1-1?	-9550
▁1931	-9551
▁4–6?	-9552
▁6–7(	-9553
▁7.13	-9554
▁9.10	-9555
▁9.16	-9556
▁Hale	-9557
▁Hold	-9558
▁Luis	-9559
▁Marg	-9560
▁Mole	-9561
▁Sher	-9562
▁Side	-9563
▁Terr	-9564
▁Your	-9565
▁barr	-9566
▁bass	-9567
▁desk	-9568
▁fast	-9569
▁kent	-9570
▁math	-9571
▁mika	-9572
▁odds	-9573
▁prec	-9574
▁sack	-9575
▁sent	-9576
▁toll	-9577
▁walk	-9578
▁warr	-9579
/02/19	-9580
aldwin	-9581
alleng	-9582
ancell	-9583
ancial	-9584
artney	-9585
athina	-9586
aurant	-9587
aysian	-9588
enshaw	-9589
ielder	-9590
indian	-9591
onesia	-9592
otspur	-9593
oulder	-9594
riders	-9595
roatia	-9596
salary	-9597
stroke	-9598
thorpe	-9599
▁10.10	-9600
▁10.17	-9601
▁12.11	-9602
▁1956?	-9603
▁1957?	-9604
▁2010)	-9605
▁Bryan	-9606
▁Carte	-9607
▁Colts	-9608
▁Denis	-9609
▁Grade	-9610
▁Maria	-9611
▁Mario	-9612
▁Media	-9613
▁POINT	-9614
▁Pyaar	-9615
▁Spect	-9616
▁Tommy	-9617
▁Turbo	-9618
▁adult	-9619
▁contr	-9620
▁cyber	-9621
▁denis	-9622
▁deput	-9623
▁downs	-9624
▁effic	-9625
▁films	-9626
▁floyd	-9627
▁keith	-9628
▁kerry	-9629
▁notre	-9630
▁pilot	-9631
▁plate	-9632
▁raced	-9633
▁youth	-9634
chedule	-9635
cording	-9636
derland	-9637
holding	-9638
imeslot	-9639
letions	-9640
pension	-9641
quarter	-9642
seconds	-9643
umphrey	-9644
vericks	-9645
▁Asians	-9646
▁Brooks	-9647
▁Double	-9648
▁Duncan	-9649
▁Editor	-9650
▁Indoor	-9651
▁Lakers	-9652
▁Lyrics	-9653
▁Medium	-9654
▁Poland	-9655
▁Vessel	-9656
▁avenue	-9657
▁campus	-9658
▁darren	-9659
▁ducati	-9660
▁duncan	-9661
▁flames	-9662
▁franch	-9663
▁galaxy	-9664
▁handle	-9665
▁inches	-9666
▁master	-9667
▁native	-9668
▁norman	-9669
▁reserv	-9670
▁singer	-9671
▁spring	-9672
▁symbol	-9673
▁trains	-9674
▁transl	-9675
▁walter	-9676
issolved	-9677
uillermo	-9678
▁2004–05	-9679
▁2009–10	-9680
▁Program	-9681
▁arrival	-9682
▁bradley	-9683
▁knights	-9684
▁listing	-9685
▁lorenzo	-9686
▁matthew	-9687
▁memphis	-9688
▁ontario	-9689
▁sánchez	-9690
▁Counties	-9691
▁Delaware	-9692
▁Dominant	-9693
▁Economic	-9694
▁Ensemble	-9695
▁Estimate	-9696
▁Genitive	-9697
▁Jonathan	-9698
▁Military	-9699
▁Panthers	-9700
▁Slovenes	-9701
▁analysts	-9702
▁marriage	-9703
▁platelet	-9704
▁research	-9705
▁reserved	-9706
▁services	-9707
▁speedway	-9708
▁vehicles	-9709
andlestick	-9710
athinaikos	-9711
oughriders	-9712
▁Available	-9713
▁Canadiens	-9714
▁Direction	-9715
▁Manhattan	-9716
▁Northeast	-9717
▁Sheffield	-9718
▁arrowhead	-9719
▁structure	-9720
▁wisconsin	-9721
▁Simplified	-9722
▁background	-9723
▁cornerback	-9724
▁department	-9725
▁incumbents	-9726
▁operations	-9727
ertification	-9728
▁programming	-9729
▁Conservative	-9730
▁Registration	-9731
▁inauguration	-9732
00000000000000	-9733
▁Choreographer	-9734
▁Preliminaries	-9735
▁corresponding	-9736
▁transliteration	-9737
LD	-9738
NC	-9739
NS	-9740
Th	-9741
sf	-9742
.33	-9743
.4,	-9744
.55	-9745
.7,	-9746
.83	-9747
.97	-9748
/17	-9749
125	-9750
12?	-9751
137	-9752
24,	-9753
:11	-9754
ALL	-9755
BOL	-9756
arc	-9757
can	-9758
chl	-9759
dez	-9760
emi	-9761
ful	-9762
ghz	-9763
hol	-9764
ivo	-9765
kar	-9766
nez	-9767
oel	-9768
uum	-9769
▁#3	-9770
▁$8	-9771
▁(#	-9772
▁2-	-9773
▁Ah	-9774
▁Ek	-9775
▁Je	-9776
▁Ox	-9777
▁Sr	-9778
▁WS	-9779
▁ip	-9780
▁op	-9781
▁sb	-9782
▁ti	-9783
▁va	-9784
▁wo	-9785
▁–1	-9786
-15?	-9787
aska	-9788
aton	-9789
bean	-9790
hart	-9791
ithu	-9792
nell	-9793
onne	-9794
onte	-9795
ried	-9796
uced	-9797
with	-9798
▁$2,	-9799
▁1,7	-9800
▁15-	-9801
▁276	-9802
▁6-1	-9803
▁60?	-9804
▁71,	-9805
▁72,	-9806
▁75?	-9807
▁ATM	-9808
▁Cam	-9809
▁Dar	-9810
▁Dim	-9811
▁GTO	-9812
▁HOW	-9813
▁Jer	-9814
▁McM	-9815
▁Meg	-9816
▁Mut	-9817
▁PER	-9818
▁Tot	-9819
▁Use	-9820
▁Vic	-9821
▁cob	-9822
▁dig	-9823
▁hir	-9824
▁jew	-9825
▁kas	-9826
▁mls	-9827
▁nav	-9828
▁ned	-9829
-2012	-9830
MEBOL	-9831
aches	-9832
arius	-9833
berry	-9834
frank	-9835
utton	-9836
uture	-9837
▁(12)	-9838
▁(82)	-9839
▁(99)	-9840
▁100?	-9841
▁1890	-9842
▁1938	-9843
▁1:24	-9844
▁4:30	-9845
▁Alan	-9846
▁Asia	-9847
▁Buck	-9848
▁Farm	-9849
▁Fisc	-9850
▁Five	-9851
▁Four	-9852
▁Gran	-9853
▁HIGH	-9854
▁HOME	-9855
▁Half	-9856
▁Jump	-9857
▁Kent	-9858
▁Late	-9859
▁Loan	-9860
▁Mack	-9861
▁Mort	-9862
▁NAME	-9863
▁PICK	-9864
▁Pada	-9865
▁Pete	-9866
▁Stev	-9867
▁User	-9868
▁airs	-9869
▁bits	-9870
▁buch	-9871
▁burg	-9872
▁cann	-9873
▁circ	-9874
▁dame	-9875
▁four	-9876
▁hous	-9877
▁kang	-9878
▁plat	-9879
▁wang	-9880
▁wkts	-9881
-68=27	-9882
aching	-9883
bishop	-9884
center	-9885
corpor	-9886
ential	-9887
ighbor	-9888
iplier	-9889
venues	-9890
▁1959?	-9891
▁Argon	-9892
▁Beach	-9893
▁Brett	-9894
▁Bulls	-9895
▁Colin	-9896
▁Creek	-9897
▁Moore	-9898
▁Tokyo	-9899
▁carlo	-9900
▁earth	-9901
▁ellis	-9902
▁grant	-9903
▁harry	-9904
▁kenny	-9905
▁limit	-9906
▁monza	-9907
▁opera	-9908
▁plant	-9909
▁prime	-9910
▁rural	-9911
▁stamp	-9912
▁zhang	-9913
ireless	-9914
oslavia	-9915
▁(2004)	-9916
▁Flight	-9917
▁Hunter	-9918
▁Manila	-9919
▁Oregon	-9920
▁POINTS	-9921
▁Places	-9922
▁Sabres	-9923
▁Samuel	-9924
▁Square	-9925
▁Weapon	-9926
▁Willis	-9927
▁Yellow	-9928
▁animal	-9929
▁employ	-9930
▁flight	-9931
▁miguel	-9932
▁models	-9933
▁monaco	-9934
▁murphy	-9935
▁rocket	-9936
▁stefan	-9937
ithuania	-9938
▁1989-90	-9939
▁2012-13	-9940
▁Academy	-9941
▁Council	-9942
▁Driving	-9943
▁Elapsed	-9944
▁Hungary	-9945
▁Subject	-9946
▁Tickets	-9947
▁Variant	-9948
▁Victory	-9949
▁alberto	-9950
▁alexand	-9951
▁collins	-9952
▁cowboys	-9953
▁indians	-9954
▁machine	-9955
▁reissue	-9956
▁shooter	-9957
▁spanish	-9958
▁squared	-9959
▁stories	-9960
▁turnout	-9961
ugoslavia	-9962
umstances	-9963
▁Arranger	-9964
▁CONMEBOL	-9965
▁Mercedes	-9966
▁Nebraska	-9967
▁Recorded	-9968
▁brussels	-9969
▁function	-9970
▁independ	-9971
▁medalist	-9972
▁portugal	-9973
▁property	-9974
▁redskins	-9975
ighborhood	-9976
▁Alternate	-9977
▁Apparatus	-9978
▁Cardinals	-9979
▁Defensive	-9980
▁Icelandic	-9981
▁Published	-9982
▁alternate	-9983
▁collision	-9984
▁coulthard	-9985
▁institute	-9986
▁nashville	-9987
▁political	-9988
▁reference	-9989
inhabitants	-9990
▁centerfold	-9991
▁Premiership	-9992
▁association	-9993
▁corinthians	-9994
▁development	-9995
▁elimination	-9996
▁termination	-9997
▁Metropolitan	-9998
▁agricultural	-9999
▁organization	-10000
▁participants	-10001
▁spokesperson	-10002
)(	-10003
/(	-10004
IR	-10005
du	-10006
gl	-10007
rí	-10008
vd	-10009
xa	-10010
yy	-10011
zh	-10012
-52	-10013
-59	-10014
.3,	-10015
.59	-10016
.86	-10017
.99	-10018
/21	-10019
01,	-10020
210	-10021
7,2	-10022
:38	-10023
CAF	-10024
UTR	-10025
aba	-10026
aho	-10027
aii	-10028
bal	-10029
cat	-10030
cho	-10031
eem	-10032
egj	-10033
ems	-10034
esa	-10035
gos	-10036
gow	-10037
iko	-10038
imp	-10039
jan	-10040
non	-10041
ogg	-10042
oko	-10043
oms	-10044
pir	-10045
shu	-10046
uen	-10047
ugu	-10048
upp	-10049
vrs	-10050
yer	-10051
–49	-10052
▁4-	-10053
▁5'	-10054
▁Bh	-10055
▁CS	-10056
▁Da	-10057
▁ET	-10058
▁LB	-10059
▁MP	-10060
▁Pi	-10061
▁SI	-10062
▁TR	-10063
▁WE	-10064
▁ja	-10065
▁mn	-10066
▁ox	-10067
▁oz	-10068
▁rs	-10069
▁–,	-10070
-18?	-10071
-27?	-10072
.197	-10073
=139	-10074
IATA	-10075
Poly	-10076
[|]]	-10077
agan	-10078
alez	-10079
allo	-10080
atan	-10081
book	-10082
eara	-10083
elen	-10084
emen	-10085
feet	-10086
hire	-10087
ides	-10088
ishi	-10089
isia	-10090
leas	-10091
ledo	-10092
lent	-10093
lets	-10094
mere	-10095
oker	-10096
omic	-10097
ouns	-10098
uchi	-10099
uffy	-10100
vada	-10101
vist	-10102
▁#1?	-10103
▁(0)	-10104
▁(66	-10105
▁181	-10106
▁1–6	-10107
▁2.8	-10108
▁282	-10109
▁293	-10110
▁2–3	-10111
▁3-3	-10112
▁3.2	-10113
▁305	-10114
▁342	-10115
▁47?	-10116
▁512	-10117
▁54?	-10118
▁59?	-10119
▁68?	-10120
▁8.3	-10121
▁AAM	-10122
▁Ant	-10123
▁Are	-10124
▁Cop	-10125
▁Lok	-10126
▁MEP	-10127
▁Pld	-10128
▁Pot	-10129
▁Sci	-10130
▁Sil	-10131
▁TDs	-10132
▁Tar	-10133
▁Toy	-10134
▁aus	-10135
▁deg	-10136
▁mob	-10137
▁mus	-10138
▁neb	-10139
▁num	-10140
▁phr	-10141
▁put	-10142
▁tam	-10143
▁teh	-10144
/2009	-10145
World	-10146
alend	-10147
angio	-10148
avens	-10149
avian	-10150
empty	-10151
enzie	-10152
iques	-10153
issan	-10154
jects	-10155
light	-10156
miles	-10157
oland	-10158
ongol	-10159
ovich	-10160
owski	-10161
quest	-10162
stern	-10163
udios	-10164
uelta	-10165
uests	-10166
uitar	-10167
under	-10168
▁(114	-10169
▁(120	-10170
▁(21)	-10171
▁(65)	-10172
▁(72)	-10173
▁12.6	-10174
▁1891	-10175
▁1905	-10176
▁1914	-10177
▁1919	-10178
▁3000	-10179
▁7.11	-10180
▁9.14	-10181
▁Abbr	-10182
▁Anne	-10183
▁FIFA	-10184
▁Hany	-10185
▁Inns	-10186
▁Lanc	-10187
▁Rush	-10188
▁Shin	-10189
▁Visa	-10190
▁WHat	-10191
▁Wang	-10192
▁bond	-10193
▁bout	-10194
▁dean	-10195
▁defe	-10196
▁fate	-10197
▁gave	-10198
▁grey	-10199
▁lyon	-10200
▁mich	-10201
▁ober	-10202
▁plan	-10203
▁prod	-10204
▁reyn	-10205
▁sach	-10206
▁sung	-10207
▁tail	-10208
▁vale	-10209
▁virt	-10210
▁ward	-10211
anassi	-10212
bayern	-10213
caster	-10214
closed	-10215
cordia	-10216
egjeld	-10217
estamp	-10218
hausen	-10219
igeria	-10220
ioneer	-10221
irchen	-10222
justed	-10223
linder	-10224
linton	-10225
nesian	-10226
ometer	-10227
osters	-10228
pencer	-10229
ulated	-10230
ussion	-10231
▁(74)?	-10232
▁12.15	-10233
▁14.12	-10234
▁2008/	-10235
▁69-68	-10236
▁Aired	-10237
▁Blues	-10238
▁Cores	-10239
▁Lotus	-10240
▁Metro	-10241
▁Robin	-10242
▁Treas	-10243
▁[[|]]	-10244
▁chile	-10245
▁climb	-10246
▁corey	-10247
▁crime	-10248
▁crude	-10249
▁fifth	-10250
▁lewis	-10251
▁quest	-10252
▁serie	-10253
▁songs	-10254
▁squad	-10255
▁trade	-10256
▁vinyl	-10257
▁vocal	-10258
agement	-10259
akhstan	-10260
asmania	-10261
bastian	-10262
ersburg	-10263
fielder	-10264
inental	-10265
lington	-10266
nambool	-10267
nership	-10268
ranking	-10269
▁(2008)	-10270
▁Chrome	-10271
▁Colour	-10272
▁Graham	-10273
▁Muzzle	-10274
▁Oblast	-10275
▁Rogers	-10276
▁Royals	-10277
▁Wright	-10278
▁action	-10279
▁albion	-10280
▁behind	-10281
▁brooks	-10282
▁browns	-10283
▁button	-10284
▁copies	-10285
▁devils	-10286
▁flyers	-10287
▁health	-10288
▁hewitt	-10289
▁immigr	-10290
▁jackie	-10291
▁licens	-10292
▁metric	-10293
▁orange	-10294
▁panama	-10295
▁pierre	-10296
▁rowers	-10297
▁samuel	-10298
▁spirit	-10299
▁stages	-10300
▁stakes	-10301
▁stereo	-10302
▁wheels	-10303
▁worked	-10304
▁yellow	-10305
ambridge	-10306
bassador	-10307
enezuela	-10308
ironment	-10309
iscovery	-10310
itecture	-10311
ochester	-10312
▁1993-94	-10313
▁2010–11	-10314
▁Cricket	-10315
▁Novelty	-10316
▁Ontario	-10317
▁Pacific	-10318
▁Payload	-10319
▁Reverse	-10320
▁Running	-10321
▁acceler	-10322
▁belarus	-10323
▁blazers	-10324
▁couples	-10325
▁failure	-10326
▁hamburg	-10327
▁kennedy	-10328
▁student	-10329
▁trevino	-10330
▁voltage	-10331
▁wallace	-10332
▁windows	-10333
▁yankees	-10334
acramento	-10335
iguration	-10336
ternative	-10337
▁2002-200	-10338
▁Accolade	-10339
▁Friendly	-10340
▁Hispanic	-10341
▁Receipts	-10342
▁Standing	-10343
▁Stanford	-10344
▁appeared	-10345
▁audience	-10346
▁founding	-10347
▁japanese	-10348
▁lawrence	-10349
▁material	-10350
▁software	-10351
▁syracuse	-10352
▁valencia	-10353
▁visitors	-10354
▁zimbabwe	-10355
Polynesian	-10356
corporated	-10357
orgenstern	-10358
▁Attribute	-10359
▁Chevrolet	-10360
▁Norwegian	-10361
▁Technical	-10362
▁accession	-10363
▁chevrolet	-10364
▁northeast	-10365
▁singapore	-10366
▁timestamp	-10367
▁Prefecture	-10368
▁Unaffected	-10369
▁Withdrawal	-10370
▁birmingham	-10371
▁professors	-10372
olverhampton	-10373
▁Governorate	-10374
▁manufacture	-10375
▁traditional	-10376
▁Entrepreneur	-10377
▁Regionalliga	-10378
▁Sudamericana	-10379
▁contemporary	-10380
▁participated	-10381
▁Pronunciation	-10382
AK	-10383
Al	-10384
Fr	-10385
GW	-10386
MR	-10387
Pr	-10388
ep	-10389
ev	-10390
iw	-10391
sr	-10392
▁¥	-10393
▁š	-10394
-36	-10395
-5)	-10396
-97	-10397
.69	-10398
.9,	-10399
/50	-10400
05?	-10401
189	-10402
550	-10403
809	-10404
For	-10405
Mon	-10406
Per	-10407
ahn	-10408
aks	-10409
bia	-10410
gir	-10411
inh	-10412
iov	-10413
iti	-10414
jay	-10415
sis	-10416
sol	-10417
tan	-10418
uty	-10419
–20	-10420
▁"0	-10421
▁(%	-10422
▁8:	-10423
▁DE	-10424
▁DF	-10425
▁FT	-10426
▁Ka	-10427
▁Ko	-10428
▁OT	-10429
▁Os	-10430
▁QF	-10431
▁SF	-10432
▁SH	-10433
▁TC	-10434
▁ka	-10435
▁kb	-10436
▁mr	-10437
▁mw	-10438
▁nu	-10439
▁ud	-10440
-22?	-10441
.1%?	-10442
Same	-10443
amba	-10444
born	-10445
copa	-10446
enko	-10447
essa	-10448
gate	-10449
gend	-10450
gets	-10451
hman	-10452
jury	-10453
nder	-10454
ofed	-10455
oken	-10456
ović	-10457
ship	-10458
ugby	-10459
usen	-10460
–197	-10461
–198	-10462
▁(#)	-10463
▁(70	-10464
▁000	-10465
▁2.1	-10466
▁2.7	-10467
▁212	-10468
▁217	-10469
▁224	-10470
▁266	-10471
▁4.2	-10472
▁5-4	-10473
▁52?	-10474
▁59,	-10475
▁6-0	-10476
▁67,	-10477
▁7-6	-10478
▁70?	-10479
▁80,	-10480
▁80?	-10481
▁9.0	-10482
▁Ast	-10483
▁Bab	-10484
▁EVA	-10485
▁Fle	-10486
▁Ful	-10487
▁Ian	-10488
▁Kan	-10489
▁Kas	-10490
▁Sex	-10491
▁blo	-10492
▁bog	-10493
▁bom	-10494
▁cbr	-10495
▁dnp	-10496
▁fir	-10497
▁gro	-10498
▁mix	-10499
▁pga	-10500
▁tag	-10501
▁tob	-10502
▁wad	-10503
-74=2	-10504
-76=2	-10505
CACAF	-10506
Prest	-10507
enses	-10508
ibson	-10509
iston	-10510
itled	-10511
osaur	-10512
▁(15)	-10513
▁(68)	-10514
▁(73)	-10515
▁(79)	-10516
▁(83)	-10517
▁(86)	-10518
▁0-1?	-10519
▁100,	-10520
▁1800	-10521
▁1851	-10522
▁1932	-10523
▁1:10	-10524
▁4-0?	-10525
▁6:30	-10526
▁8.12	-10527
▁ATMs	-10528
▁Ages	-10529
▁Audi	-10530
▁Budd	-10531
▁Epic	-10532
▁Full	-10533
▁GNIS	-10534
▁Grad	-10535
▁MANY	-10536
▁Mans	-10537
▁Math	-10538
▁Move	-10539
▁Oliv	-10540
▁Page	-10541
▁Reid	-10542
▁Tong	-10543
▁WNBA	-10544
▁Wars	-10545
▁Wing	-10546
▁barn	-10547
▁bird	-10548
▁cash	-10549
▁conc	-10550
▁debt	-10551
▁demo	-10552
▁gill	-10553
▁give	-10554
▁gray	-10555
▁hans	-10556
▁heir	-10557
▁hist	-10558
▁hors	-10559
▁like	-10560
▁mall	-10561
▁moon	-10562
▁scot	-10563
▁seve	-10564
▁soap	-10565
School	-10566
arsity	-10567
encies	-10568
endish	-10569
illips	-10570
ittler	-10571
ressed	-10572
richel	-10573
uggets	-10574
ulture	-10575
ximate	-10576
▁1962?	-10577
▁1992,	-10578
▁1994,	-10579
▁1999,	-10580
▁2000,	-10581
▁Appro	-10582
▁Cable	-10583
▁Danny	-10584
▁Dixon	-10585
▁Fight	-10586
▁Grant	-10587
▁Harry	-10588
▁Milan	-10589
▁Moves	-10590
▁Notre	-10591
▁Pages	-10592
▁Ralph	-10593
▁Sound	-10594
▁Tests	-10595
▁Thurs	-10596
▁Tower	-10597
▁Tracy	-10598
▁Voted	-10599
▁WHICH	-10600
▁Youth	-10601
▁areas	-10602
▁aston	-10603
▁brows	-10604
▁buses	-10605
▁early	-10606
▁ernie	-10607
▁faced	-10608
▁fired	-10609
▁heinz	-10610
▁kraft	-10611
▁labor	-10612
▁mason	-10613
▁paulo	-10614
▁prote	-10615
▁ralph	-10616
▁recap	-10617
▁scale	-10618
▁stone	-10619
▁tyres	-10620
000,000	-10621
airdate	-10622
jection	-10623
legated	-10624
ulation	-10625
▁1,000)	-10626
▁Arabic	-10627
▁Ceased	-10628
▁Harris	-10629
▁Metric	-10630
▁Michel	-10631
▁Mobile	-10632
▁Mother	-10633
▁Output	-10634
▁Rookie	-10635
▁Spring	-10636
▁Sprint	-10637
▁Walter	-10638
▁advent	-10639
▁agency	-10640
▁archer	-10641
▁attack	-10642
▁battle	-10643
▁bryant	-10644
▁cinema	-10645
▁climax	-10646
▁forest	-10647
▁marcus	-10648
▁months	-10649
▁museum	-10650
▁newman	-10651
▁prices	-10652
▁riders	-10653
▁screen	-10654
▁sector	-10655
▁showed	-10656
▁sprint	-10657
▁strong	-10658
▁venues	-10659
▁1995-96	-10660
▁2010/11	-10661
▁African	-10662
▁Alianza	-10663
▁Beijing	-10664
▁Belgian	-10665
▁Canucks	-10666
▁Chapter	-10667
▁Collins	-10668
▁Economy	-10669
▁Francis	-10670
▁Lincoln	-10671
▁Madison	-10672
▁Russell	-10673
▁Swedish	-10674
▁Virtual	-10675
▁account	-10676
▁anaheim	-10677
▁chapter	-10678
▁dallara	-10679
▁defense	-10680
▁deleted	-10681
▁emerson	-10682
▁everton	-10683
▁herbert	-10684
▁leonard	-10685
▁monarch	-10686
▁orbital	-10687
▁reserve	-10688
▁Brooklyn	-10689
▁Bulgaria	-10690
▁CONCACAF	-10691
▁Delivery	-10692
▁Function	-10693
▁Launches	-10694
▁Literacy	-10695
▁Marathon	-10696
▁Research	-10697
▁Starting	-10698
▁acquired	-10699
▁browsers	-10700
▁dolphins	-10701
▁download	-10702
▁fullback	-10703
▁marlboro	-10704
▁penguins	-10705
▁provided	-10706
▁stanford	-10707
▁Intergiro	-10708
▁Investing	-10709
▁Malayalam	-10710
▁Presenter	-10711
▁Televotes	-10712
▁finishing	-10713
▁languages	-10714
▁mickelson	-10715
▁moorabbin	-10716
Prestegjeld	-10717
▁Horizontal	-10718
▁dimensions	-10719
▁queensland	-10720
▁suspension	-10721
▁villeneuve	-10722
▁Commentator	-10723
▁Philippines	-10724
▁ballesteros	-10725
▁operational	-10726
▁quarterback	-10727
▁subjunctive	-10728
▁temperature	-10729
▁Circumstances	-10730
▁Originalairdate	-10731
▁classifications	-10732
BI	-10733
CM	-10734
TA	-10735
UE	-10736
cz	-10737
ea	-10738
ič	-10739
ku	-10740
är	-10741
éd	-10742
ël	-10743
то	-10744
–$	-10745
-0)	-10746
-62	-10747
-79	-10748
-81	-10749
-82	-10750
-91	-10751
.38	-10752
.53	-10753
/20	-10754
103	-10755
22?	-10756
7.2	-10757
910	-10758
980	-10759
ARD	-10760
WAY	-10761
agn	-10762
asy	-10763
ebo	-10764
gel	-10765
gie	-10766
gus	-10767
ieu	-10768
iev	-10769
ils	-10770
ios	-10771
iox	-10772
isl	-10773
iva	-10774
kWh	-10775
mel	-10776
nai	-10777
osl	-10778
ovo	-10779
raf	-10780
rin	-10781
tel	-10782
uis	-10783
uru	-10784
var	-10785
vez	-10786
wer	-10787
▁2%	-10788
▁7"	-10789
▁DT	-10790
▁HB	-10791
▁Ja	-10792
▁Ly	-10793
▁PL	-10794
▁Po	-10795
▁Ta	-10796
▁db	-10797
▁ek	-10798
▁fs	-10799
▁fw	-10800
▁jr	-10801
▁kw	-10802
▁£3	-10803
-16?	-10804
.00?	-10805
Town	-10806
abad	-10807
alis	-10808
amac	-10809
amal	-10810
ambo	-10811
anco	-10812
ande	-10813
anni	-10814
anto	-10815
arth	-10816
atec	-10817
bach	-10818
bine	-10819
cept	-10820
chel	-10821
chin	-10822
chus	-10823
gang	-10824
guez	-10825
hein	-10826
heng	-10827
hine	-10828
iele	-10829
ikes	-10830
ilen	-10831
iman	-10832
imed	-10833
iral	-10834
iras	-10835
isch	-10836
issa	-10837
kova	-10838
ofia	-10839
ogee	-10840
oler	-10841
ollo	-10842
omon	-10843
opot	-10844
oyne	-10845
riff	-10846
roft	-10847
undy	-10848
unts	-10849
urai	-10850
vale	-10851
zbek	-10852
▁(20	-10853
▁(97	-10854
▁+13	-10855
▁+1?	-10856
▁12"	-10857
▁12-	-10858
▁15:	-10859
▁161	-10860
▁169	-10861
▁2-8	-10862
▁256	-10863
▁289	-10864
▁3-4	-10865
▁307	-10866
▁340	-10867
▁37?	-10868
▁6-4	-10869
▁67?	-10870
▁7.7	-10871
▁76?	-10872
▁77,	-10873
▁ACC	-10874
▁BMW	-10875
▁Blo	-10876
▁Bye	-10877
▁Exp	-10878
▁HDI	-10879
▁ISO	-10880
▁PAR	-10881
▁PRR	-10882
▁Pun	-10883
▁Tun	-10884
▁Way	-10885
▁alt	-10886
▁ave	-10887
▁bon	-10888
▁era	-10889
▁fps	-10890
▁gay	-10891
▁god	-10892
▁gpl	-10893
▁hal	-10894
▁han	-10895
▁jer	-10896
▁kos	-10897
▁lev	-10898
▁mut	-10899
▁nec	-10900
▁pie	-10901
▁spa	-10902
▁und	-10903
▁wan	-10904
-2011	-10905
-65=2	-10906
ERAGE	-10907
acchi	-10908
adler	-10909
akley	-10910
annes	-10911
arest	-10912
ateur	-10913
eeney	-10914
endan	-10915
erick	-10916
exans	-10917
flict	-10918
ierry	-10919
ikata	-10920
ilion	-10921
imson	-10922
indon	-10923
liani	-10924
ohang	-10925
older	-10926
omers	-10927
onian	-10928
onnor	-10929
ounts	-10930
riers	-10931
rones	-10932
undee	-10933
ández	-10934
ürgen	-10935
▁(116	-10936
▁(127	-10937
▁(17)	-10938
▁(19)	-10939
▁(26)	-10940
▁(29)	-10941
▁(32)	-10942
▁(70)	-10943
▁(89)	-10944
▁(98)	-10945
▁1-2?	-10946
▁10.6	-10947
▁1898	-10948
▁1923	-10949
▁1925	-10950
▁AWAY	-10951
▁Bart	-10952
▁Cong	-10953
▁Dame	-10954
▁Dual	-10955
▁Fumb	-10956
▁Jews	-10957
▁Magn	-10958
▁Pier	-10959
▁Rain	-10960
▁Seed	-10961
▁Suns	-10962
▁Tail	-10963
▁Till	-10964
▁bolt	-10965
▁brig	-10966
▁carr	-10967
▁face	-10968
▁flat	-10969
▁ivan	-10970
▁luca	-10971
▁mack	-10972
▁maur	-10973
▁mode	-10974
▁orth	-10975
▁patt	-10976
▁peru	-10977
▁plyf	-10978
▁regg	-10979
▁rudy	-10980
▁stay	-10981
▁talk	-10982
▁tong	-10983
▁ucla	-10984
▁wals	-10985
▁yang	-10986
-74=14	-10987
Market	-10988
aidens	-10989
ailand	-10990
ancock	-10991
anghai	-10992
annada	-10993
aptors	-10994
atalia	-10995
ceanic	-10996
elbase	-10997
elling	-10998
entino	-10999
essels	-11000
iantes	-11001
ionale	-11002
ioxide	-11003
irling	-11004
izards	-11005
kollen	-11006
metres	-11007
ozilla	-11008
rected	-11009
ubbles	-11010
upiter	-11011
verted	-11012
vinces	-11013
▁(105)	-11014
▁(2011	-11015
▁(65)?	-11016
▁(84)?	-11017
▁10.13	-11018
▁11.15	-11019
▁11.18	-11020
▁12.14	-11021
▁14.14	-11022
▁15.14	-11023
▁1943?	-11024
▁2005/	-11025
▁2009/	-11026
▁68-71	-11027
▁Alpha	-11028
▁Cards	-11029
▁Colon	-11030
▁Falls	-11031
▁Fifth	-11032
▁Floor	-11033
▁Genes	-11034
▁Georg	-11035
▁Hanyu	-11036
▁Kenny	-11037
▁Laura	-11038
▁Lewis	-11039
▁Marsh	-11040
▁Sabha	-11041
▁Small	-11042
▁Stone	-11043
▁Table	-11044
▁Whose	-11045
▁autom	-11046
▁barry	-11047
▁brent	-11048
▁delta	-11049
▁dutch	-11050
▁egypt	-11051
▁georg	-11052
▁krist	-11053
▁lakes	-11054
▁numer	-11055
▁pablo	-11056
▁rabat	-11057
▁sacks	-11058
▁separ	-11059
▁shipp	-11060
▁stand	-11061
▁trial	-11062
▁watch	-11063
▁write	-11064
cussion	-11065
ennings	-11066
franken	-11067
iccardo	-11068
inburgh	-11069
letcher	-11070
mediate	-11071
terbury	-11072
utenant	-11073
veloped	-11074
▁(0-1)?	-11075
▁25,000	-11076
▁Behind	-11077
▁Equity	-11078
▁Wheels	-11079
▁Yamaha	-11080
▁analog	-11081
▁andrea	-11082
▁arrows	-11083
▁aspect	-11084
▁bolton	-11085
▁clarke	-11086
▁dbeing	-11087
▁dynamo	-11088
▁italia	-11089
▁jeremy	-11090
▁knicks	-11091
▁mechan	-11092
▁norton	-11093
▁steven	-11094
▁travis	-11095
division	-11096
richello	-11097
udiantes	-11098
▁2008/09	-11099
▁2010-11	-11100
▁AVERAGE	-11101
▁Address	-11102
▁Details	-11103
▁Duchess	-11104
▁Leonard	-11105
▁Officer	-11106
▁Persian	-11107
▁Private	-11108
▁Remixed	-11109
▁Staffel	-11110
▁bengals	-11111
▁brandon	-11112
▁bugatti	-11113
▁carrier	-11114
▁complex	-11115
▁correct	-11116
▁damaged	-11117
▁mention	-11118
▁orlando	-11119
▁purpose	-11120
▁reading	-11121
▁variant	-11122
▁vietnam	-11123
▁wrexham	-11124
umberland	-11125
zbekistan	-11126
▁Andretti	-11127
▁Callback	-11128
▁Catholic	-11129
▁Channels	-11130
▁Steelers	-11131
▁baseball	-11132
▁capitals	-11133
▁composer	-11134
▁dominant	-11135
▁economic	-11136
▁entrants	-11137
▁fighting	-11138
▁giuseppe	-11139
▁magazine	-11140
▁meetings	-11141
▁missouri	-11142
▁nicklaus	-11143
▁pictures	-11144
▁reaction	-11145
▁relative	-11146
▁required	-11147
▁swimming	-11148
▁Accession	-11149
▁Argentina	-11150
▁Armstrong	-11151
▁Cartridge	-11152
▁Isolation	-11153
▁McCartney	-11154
▁Relations	-11155
▁Robertson	-11156
▁Southeast	-11157
▁Supercopa	-11158
▁financial	-11159
▁passenger	-11160
▁rasmussen	-11161
▁recording	-11162
▁renewable	-11163
▁Amerindian	-11164
▁Casualties	-11165
▁Registered	-11166
▁amendments	-11167
▁goalkeeper	-11168
▁horizontal	-11169
▁immigrants	-11170
▁Represented	-11171
▁Silverstone	-11172
▁Organization	-11173
▁Participants	-11174
▁Spokesperson	-11175
▁Unemployment	-11176
▁organisation	-11177
▁configuration	-11178
▁Northumberland	-11179
)/	-11180
HO	-11181
RY	-11182
VP	-11183
WM	-11184
fs	-11185
jp	-11186
kk	-11187
qm	-11188
wy	-11189
ün	-11190
ле	-11191
ло	-11192
▁!	-11193
▁б	-11194
-45	-11195
-7)	-11196
.39	-11197
.56	-11198
007	-11199
01?	-11200
03?	-11201
06?	-11202
102	-11203
9,6	-11204
995	-11205
Cap	-11206
GRT	-11207
Off	-11208
SRP	-11209
abe	-11210
asl	-11211
aty	-11212
bis	-11213
bus	-11214
eno	-11215
far	-11216
nan	-11217
oti	-11218
rer	-11219
ror	-11220
san	-11221
tte	-11222
ube	-11223
uko	-11224
–31	-11225
▁"3	-11226
▁"6	-11227
▁$9	-11228
▁-2	-11229
▁1–	-11230
▁Ax	-11231
▁Ay	-11232
▁DS	-11233
▁Jr	-11234
▁MR	-11235
▁NV	-11236
▁QB	-11237
▁QS	-11238
▁RA	-11239
▁Ts	-11240
▁Wk	-11241
▁XI	-11242
▁Zh	-11243
▁lj	-11244
▁mv	-11245
▁pc	-11246
▁tu	-11247
▁xx	-11248
▁zo	-11249
▁zx	-11250
▁–2	-11251
-105	-11252
-19?	-11253
Cold	-11254
ICAO	-11255
aman	-11256
amig	-11257
aran	-11258
asts	-11259
bian	-11260
cked	-11261
clay	-11262
enda	-11263
etty	-11264
iler	-11265
lift	-11266
obal	-11267
oner	-11268
oses	-11269
oval	-11270
park	-11271
quan	-11272
ruit	-11273
uton	-11274
▁0–3	-11275
▁172	-11276
▁18:	-11277
▁203	-11278
▁222	-11279
▁227	-11280
▁228	-11281
▁236	-11282
▁248	-11283
▁295	-11284
▁2:3	-11285
▁3.1	-11286
▁3.8	-11287
▁304	-11288
▁319	-11289
▁4.1	-11290
▁4:1	-11291
▁4:3	-11292
▁5.4	-11293
▁61?	-11294
▁66?	-11295
▁750	-11296
▁ARE	-11297
▁AUS	-11298
▁Alt	-11299
▁BBI	-11300
▁Cit	-11301
▁Dro	-11302
▁Fil	-11303
▁GTU	-11304
▁Jar	-11305
▁Kay	-11306
▁Kos	-11307
▁McA	-11308
▁PAL	-11309
▁Yds	-11310
▁amy	-11311
▁cbs	-11312
▁cha	-11313
▁cut	-11314
▁dor	-11315
▁esc	-11316
▁fri	-11317
▁ful	-11318
▁ign	-11319
▁joy	-11320
▁kid	-11321
▁kor	-11322
▁lsu	-11323
▁mik	-11324
▁mom	-11325
▁nar	-11326
▁pin	-11327
▁pra	-11328
▁reb	-11329
▁rou	-11330
▁são	-11331
▁var	-11332
▁vow	-11333
,000?	-11334
Games	-11335
Score	-11336
amara	-11337
ename	-11338
enroe	-11339
ettes	-11340
ipoll	-11341
ither	-11342
ombia	-11343
ounds	-11344
ronym	-11345
state	-11346
total	-11347
tters	-11348
unnel	-11349
▁(18)	-11350
▁(23)	-11351
▁(25)	-11352
▁(54)	-11353
▁(80)	-11354
▁15.8	-11355
▁18,6	-11356
▁18.9	-11357
▁1857	-11358
▁1881	-11359
▁1894	-11360
▁1902	-11361
▁1906	-11362
▁1907	-11363
▁1911	-11364
▁1912	-11365
▁1–0?	-11366
▁4-1?	-11367
▁4000	-11368
▁5000	-11369
▁6:00	-11370
▁Alfa	-11371
▁Anna	-11372
▁Bars	-11373
▁Brew	-11374
▁Cars	-11375
▁Colt	-11376
▁Dead	-11377
▁Died	-11378
▁Does	-11379
▁Edge	-11380
▁Ener	-11381
▁Giro	-11382
▁Gray	-11383
▁Horn	-11384
▁Hull	-11385
▁Iron	-11386
▁Jian	-11387
▁Karl	-11388
▁Kick	-11389
▁Kirk	-11390
▁MSRP	-11391
▁News	-11392
▁Pinn	-11393
▁RAtt	-11394
▁Reed	-11395
▁Sack	-11396
▁Schw	-11397
▁Sunk	-11398
▁Tale	-11399
▁Tall	-11400
▁Todd	-11401
▁Wolf	-11402
▁brom	-11403
▁cage	-11404
▁conv	-11405
▁gust	-11406
▁moss	-11407
▁nova	-11408
▁outs	-11409
▁owns	-11410
▁pair	-11411
▁pale	-11412
▁sang	-11413
▁sche	-11414
▁sean	-11415
▁sher	-11416
▁step	-11417
▁sylv	-11418
▁tone	-11419
-67=13	-11420
-70-71	-11421
-73=21	-11422
donald	-11423
earing	-11424
eteran	-11425
inning	-11426
istons	-11427
odgers	-11428
pected	-11429
▁(104)	-11430
▁(70)?	-11431
▁09-10	-11432
▁1940?	-11433
▁1942?	-11434
▁1951?	-11435
▁2011)	-11436
▁4-6-0	-11437
▁Basin	-11438
▁Colle	-11439
▁Damon	-11440
▁Egypt	-11441
▁Fresh	-11442
▁Front	-11443
▁Ipsos	-11444
▁Maced	-11445
▁Marco	-11446
▁Mason	-11447
▁PLACE	-11448
▁Plant	-11449
▁Queen	-11450
▁Recap	-11451
▁Santa	-11452
▁Split	-11453
▁Trail	-11454
▁Villa	-11455
▁Vocal	-11456
▁adams	-11457
▁angel	-11458
▁apert	-11459
▁appar	-11460
▁brett	-11461
▁chuck	-11462
▁expos	-11463
▁glenn	-11464
▁going	-11465
▁hosts	-11466
▁intro	-11467
▁laura	-11468
▁lines	-11469
▁metro	-11470
▁moore	-11471
▁payne	-11472
▁pitch	-11473
▁solid	-11474
▁trail	-11475
▁trees	-11476
▁twist	-11477
▁valid	-11478
alendar	-11479
diction	-11480
ouettes	-11481
station	-11482
tension	-11483
▁12,000	-11484
▁Apogee	-11485
▁Athens	-11486
▁Cancel	-11487
▁Curtis	-11488
▁Danish	-11489
▁Dragon	-11490
▁Kennel	-11491
▁Lineup	-11492
▁Madrid	-11493
▁Manuel	-11494
▁MotoGP	-11495
▁Palace	-11496
▁Planet	-11497
▁Prefix	-11498
▁Sample	-11499
▁Screen	-11500
▁Suburb	-11501
▁Toyota	-11502
▁Travis	-11503
▁Warren	-11504
▁affili	-11505
▁anders	-11506
▁bottom	-11507
▁closed	-11508
▁device	-11509
▁fought	-11510
▁groups	-11511
▁juvent	-11512
▁kurtis	-11513
▁ladies	-11514
▁morgan	-11515
▁object	-11516
▁planet	-11517
▁sharks	-11518
▁spoken	-11519
▁sussex	-11520
▁titans	-11521
▁versus	-11522
▁virgin	-11523
▁voting	-11524
▁wicket	-11525
Finalist	-11526
▁1991-92	-11527
▁1992-93	-11528
▁2003-04	-11529
▁Arsenal	-11530
▁Banglad	-11531
▁Federal	-11532
▁Leagues	-11533
▁Phillip	-11534
▁Popular	-11535
▁Spoofed	-11536
▁Webcast	-11537
▁belgian	-11538
▁carries	-11539
▁century	-11540
▁chester	-11541
▁decimal	-11542
▁edwards	-11543
▁element	-11544
▁francis	-11545
▁hotspur	-11546
▁janeiro	-11547
▁leagues	-11548
▁littler	-11549
▁pennant	-11550
▁perfect	-11551
▁process	-11552
▁rebuilt	-11553
▁sampled	-11554
▁trainer	-11555
▁ukraine	-11556
Communist	-11557
oslovakia	-11558
▁1990-199	-11559
▁Assembly	-11560
▁Constant	-11561
▁Currency	-11562
▁Failures	-11563
▁Fernando	-11564
▁Founding	-11565
▁Kingston	-11566
▁Material	-11567
▁Parallel	-11568
▁Robinson	-11569
▁Seahawks	-11570
▁Sideline	-11571
▁Software	-11572
▁Upstream	-11573
▁Warriors	-11574
▁budapest	-11575
▁colonial	-11576
▁contract	-11577
▁fixtures	-11578
▁mariners	-11579
▁ordinary	-11580
▁proposed	-11581
▁regional	-11582
▁saturday	-11583
▁shooting	-11584
▁singular	-11585
▁Bandwidth	-11586
▁Barcelona	-11587
▁Blackpool	-11588
▁Christine	-11589
▁Frankfurt	-11590
▁Freestyle	-11591
▁Hampshire	-11592
▁Islanders	-11593
▁Prolonged	-11594
▁Reference	-11595
▁Satellite	-11596
▁according	-11597
▁emissions	-11598
▁frederick	-11599
▁platforms	-11600
▁questions	-11601
▁secondary	-11602
▁technical	-11603
▁tottenham	-11604
▁Alessandro	-11605
▁Households	-11606
▁bodyweight	-11607
▁fatalities	-11608
▁fittipaldi	-11609
▁hurricanes	-11610
▁motorcycle	-11611
ounsaturated	-11612
▁christopher	-11613
▁citizenship	-11614
▁composition	-11615
▁connecticut	-11616
▁declination	-11617
▁Relationship	-11618
▁metropolitan	-11619
▁presentation	-11620
▁Certification	-11621
▁semifinalists	-11622
Af	-11623
DD	-11624
En	-11625
LL	-11626
ML	-11627
Su	-11628
dc	-11629
ej	-11630
hn	-11631
mc	-11632
ák	-11633
én	-11634
ин	-11635
▁ž	-11636
-32	-11637
-37	-11638
-6)	-11639
.41	-11640
.52	-11641
.6,	-11642
.61	-11643
.94	-11644
01)	-11645
177	-11646
250	-11647
3),	-11648
443	-11649
6,2	-11650
6,7	-11651
80)	-11652
939	-11653
:12	-11654
Cmp	-11655
Con	-11656
ENT	-11657
ESE	-11658
Net	-11659
Non	-11660
Ret	-11661
San	-11662
Sub	-11663
Yds	-11664
aca	-11665
ahe	-11666
apa	-11667
aqu	-11668
arh	-11669
arz	-11670
avo	-11671
bes	-11672
eny	-11673
esy	-11674
ged	-11675
gor	-11676
idi	-11677
imn	-11678
iso	-11679
izz	-11680
ohl	-11681
ouc	-11682
rat	-11683
ril	-11684
sch	-11685
ueb	-11686
uls	-11687
vic	-11688
vir	-11689
}}}	-11690
–22	-11691
–92	-11692
▁"5	-11693
▁..	-11694
▁3/	-11695
▁GR	-11696
▁HS	-11697
▁Il	-11698
▁Na	-11699
▁Om	-11700
▁Ot	-11701
▁Wo	-11702
▁dh	-11703
▁gs	-11704
▁ji	-11705
▁nh	-11706
▁ri	-11707
▁rr	-11708
▁vy	-11709
-08?	-11710
/197	-11711
24,2	-11712
NAME	-11713
Qual	-11714
Sogn	-11715
Song	-11716
abil	-11717
acaf	-11718
acio	-11719
addy	-11720
agin	-11721
ahir	-11722
asco	-11723
azon	-11724
bins	-11725
brid	-11726
cury	-11727
dles	-11728
eaux	-11729
endy	-11730
enos	-11731
enti	-11732
este	-11733
eves	-11734
fast	-11735
frac	-11736
good	-11737
iane	-11738
ibbs	-11739
igma	-11740
imes	-11741
imos	-11742
ipei	-11743
iper	-11744
isle	-11745
itsu	-11746
mans	-11747
odie	-11748
oges	-11749
olan	-11750
oley	-11751
olos	-11752
ooth	-11753
othy	-11754
otti	-11755
plus	-11756
roma	-11757
sing	-11758
ters	-11759
urie	-11760
ways	-11761
yram	-11762
–12?	-11763
▁(33	-11764
▁+19	-11765
▁171	-11766
▁214	-11767
▁218	-11768
▁231	-11769
▁288	-11770
▁301	-11771
▁325	-11772
▁333	-11773
▁4.4	-11774
▁410	-11775
▁5-2	-11776
▁53?	-11777
▁56?	-11778
▁6.3	-11779
▁64?	-11780
▁7.4	-11781
▁81?	-11782
▁900	-11783
▁Arc	-11784
▁Bro	-11785
▁Cru	-11786
▁DOB	-11787
▁Dep	-11788
▁Die	-11789
▁Dub	-11790
▁Gay	-11791
▁Joh	-11792
▁Kel	-11793
▁Kor	-11794
▁Lad	-11795
▁Lav	-11796
▁Len	-11797
▁Leo	-11798
▁Lib	-11799
▁Lux	-11800
▁MVP	-11801
▁Nik	-11802
▁Rah	-11803
▁Sax	-11804
▁Sri	-11805
▁aor	-11806
▁fis	-11807
▁gav	-11808
▁ins	-11809
▁kap	-11810
▁kra	-11811
▁lag	-11812
▁leo	-11813
▁lud	-11814
▁lux	-11815
▁mog	-11816
▁mph	-11817
▁nsw	-11818
▁ole	-11819
▁pir	-11820
▁ric	-11821
▁sox	-11822
▁tyr	-11823
-75=2	-11824
3,000	-11825
4,000	-11826
adena	-11827
anova	-11828
aredo	-11829
aroos	-11830
atari	-11831
athal	-11832
combe	-11833
first	-11834
geria	-11835
iacos	-11836
igail	-11837
ilian	-11838
itors	-11839
ksand	-11840
lover	-11841
nikov	-11842
odome	-11843
oking	-11844
oyama	-11845
qvist	-11846
raham	-11847
ricia	-11848
rique	-11849
vador	-11850
yrton	-11851
ébast	-11852
▁(0–1	-11853
▁(2)?	-11854
▁(56)	-11855
▁(64)	-11856
▁(66)	-11857
▁(69)	-11858
▁(75)	-11859
▁(76)	-11860
▁(87)	-11861
▁1512	-11862
▁16:9	-11863
▁1899	-11864
▁1908	-11865
▁1913	-11866
▁1924	-11867
▁1:16	-11868
▁2400	-11869
▁2–0?	-11870
▁2–6?	-11871
▁3-2?	-11872
▁3-6,	-11873
▁6-3,	-11874
▁7.14	-11875
▁Asts	-11876
▁Bene	-11877
▁Dale	-11878
▁Dean	-11879
▁Dirk	-11880
▁Doha	-11881
▁Effe	-11882
▁FLap	-11883
▁Firm	-11884
▁Fury	-11885
▁Golf	-11886
▁Gonz	-11887
▁Hend	-11888
▁Jerk	-11889
▁Kcal	-11890
▁Lang	-11891
▁Moon	-11892
▁Peru	-11893
▁Pont	-11894
▁Rand	-11895
▁Rebs	-11896
▁Sold	-11897
▁Viet	-11898
▁Zach	-11899
▁anne	-11900
▁bars	-11901
▁cair	-11902
▁cass	-11903
▁cham	-11904
▁cher	-11905
▁corn	-11906
▁cour	-11907
▁earn	-11908
▁espn	-11909
▁fury	-11910
▁gian	-11911
▁hend	-11912
▁hull	-11913
▁iron	-11914
▁kick	-11915
▁lola	-11916
▁mole	-11917
▁navy	-11918
▁noel	-11919
▁plur	-11920
▁pont	-11921
▁poor	-11922
▁prem	-11923
▁shar	-11924
▁surv	-11925
▁trip	-11926
-67-69	-11927
-70-68	-11928
-70=13	-11929
-70=28	-11930
Metric	-11931
alifax	-11932
endoza	-11933
enheim	-11934
hauser	-11935
iamond	-11936
ibbean	-11937
ibbons	-11938
idfeld	-11939
ikhail	-11940
immera	-11941
incham	-11942
iolent	-11943
ivodes	-11944
letter	-11945
neider	-11946
onetic	-11947
ornado	-11948
osport	-11949
ounger	-11950
ríguez	-11951
unning	-11952
▁(110)	-11953
▁(117)	-11954
▁(71)?	-11955
▁(72)?	-11956
▁(79)?	-11957
▁12.17	-11958
▁13.10	-11959
▁13.12	-11960
▁13.13	-11961
▁13.14	-11962
▁18–49	-11963
▁20,56	-11964
▁2002,	-11965
▁68-73	-11966
▁70-72	-11967
▁71-66	-11968
▁Acres	-11969
▁Eagle	-11970
▁Gener	-11971
▁Krist	-11972
▁Lower	-11973
▁Lucas	-11974
▁Moran	-11975
▁Paper	-11976
▁Pitch	-11977
▁Seans	-11978
▁Singh	-11979
▁Unser	-11980
▁agent	-11981
▁anton	-11982
▁baker	-11983
▁catag	-11984
▁crist	-11985
▁eagle	-11986
▁forsy	-11987
▁glass	-11988
▁grade	-11989
▁hayes	-11990
▁heart	-11991
▁hindi	-11992
▁irish	-11993
▁luigi	-11994
▁marty	-11995
▁means	-11996
▁multi	-11997
▁quick	-11998
▁seoul	-11999
▁store	-12000
▁truck	-12001
▁ultra	-12002
Oceanic	-12003
achelor	-12004
amiglia	-12005
ancesco	-12006
angzhou	-12007
ensboro	-12008
ijikata	-12009
legates	-12010
version	-12011
▁(2003)	-12012
▁Bailey	-12013
▁Bolton	-12014
▁Clarke	-12015
▁Compar	-12016
▁Famous	-12017
▁Instit	-12018
▁Judges	-12019
▁Nicole	-12020
▁Pierre	-12021
▁Proper	-12022
▁Recopa	-12023
▁Riders	-12024
▁Riding	-12025
▁Soviet	-12026
▁Ticket	-12027
▁Zodiac	-12028
▁angels	-12029
▁barrel	-12030
▁braves	-12031
▁chosen	-12032
▁compan	-12033
▁ensign	-12034
▁friday	-12035
▁issues	-12036
▁kicker	-12037
▁killed	-12038
▁michel	-12039
▁monday	-12040
▁monica	-12041
▁podium	-12042
▁rivers	-12043
▁robbie	-12044
▁rookie	-12045
▁sabres	-12046
▁sample	-12047
▁sergio	-12048
▁sunday	-12049
▁tariff	-12050
▁turner	-12051
▁wright	-12052
-69-73=2	-12053
Billions	-12054
Location	-12055
allenger	-12056
families	-12057
gressive	-12058
scribers	-12059
trincham	-12060
ébastien	-12061
▁1987-88	-12062
▁1988-89	-12063
▁2001-02	-12064
▁23,24,2	-12065
▁Alberta	-12066
▁Chester	-12067
▁Crystal	-12068
▁Injured	-12069
▁Kannada	-12070
▁Kennedy	-12071
▁Lorenzo	-12072
▁Orbital	-12073
▁Profess	-12074
▁Remarks	-12075
▁Started	-12076
▁Tackles	-12077
▁alberta	-12078
▁bernard	-12079
▁dominik	-12080
▁gymnast	-12081
▁husband	-12082
▁kenneth	-12083
▁neutral	-12084
▁pentium	-12085
▁prefect	-12086
▁skating	-12087
▁skipper	-12088
▁storage	-12089
▁transit	-12090
▁watford	-12091
ferencing	-12092
ivodeship	-12093
menkollen	-12094
▁Comments	-12095
▁Franklin	-12096
▁Reported	-12097
▁Security	-12098
▁Supplier	-12099
▁Tropical	-12100
▁andretti	-12101
▁athletes	-12102
▁identity	-12103
▁increase	-12104
▁lyricist	-12105
▁resident	-12106
▁senators	-12107
Qualifying	-12108
ographical	-12109
▁Cavaliers	-12110
▁Conductor	-12111
▁Corrected	-12112
▁Delivered	-12113
▁Finalists	-12114
▁Nashville	-12115
▁Platforms	-12116
▁Renewable	-12117
▁Territory	-12118
▁destroyed	-12119
▁guillermo	-12120
▁resulting	-12121
▁southeast	-12122
▁worldwide	-12123
▁Motorcycle	-12124
▁Spacecraft	-12125
▁industrial	-12126
▁louisville	-12127
▁registered	-12128
▁simplified	-12129
▁volleyball	-12130
▁environment	-12131
▁expenditure	-12132
▁Distribution	-12133
▁denomination	-12134
▁measurements	-12135
▁Quarterfinals	-12136
▁middlesbrough	-12137
▁administration	-12138
*)	-12139
+1	-12140
.-	-12141
..	-12142
?"	-12143
EA	-12144
FG	-12145
Gr	-12146
NA	-12147
NE	-12148
Nm	-12149
WC	-12150
WR	-12151
dd	-12152
mg	-12153
ōm	-12154
ка	-12155
▁ɪ	-12156
-48	-12157
.91	-12158
04?	-12159
09?	-12160
109	-12161
140	-12162
180	-12163
19?	-12164
204	-12165
205	-12166
254	-12167
290	-12168
40?	-12169
494	-12170
50?	-12171
551	-12172
:40	-12173
:46	-12174
ALS	-12175
ARB	-12176
Car	-12177
Day	-12178
Mar	-12179
anç	-12180
has	-12181
hem	-12182
hey	-12183
iza	-12184
jek	-12185
oya	-12186
psi	-12187
uir	-12188
yes	-12189
–23	-12190
–93	-12191
▁"7	-12192
▁5-	-12193
▁Cu	-12194
▁Dj	-12195
▁GV	-12196
▁KK	-12197
▁Km	-12198
▁Ku	-12199
▁RL	-12200
▁Ri	-12201
▁TI	-12202
▁Vi	-12203
▁au	-12204
▁bb	-12205
▁fu	-12206
▁kt	-12207
▁nm	-12208
▁oo	-12209
▁pp	-12210
▁ug	-12211
▁—,	-12212
-07?	-12213
-102	-12214
-24?	-12215
ESUL	-12216
INKA	-12217
Time	-12218
WEST	-12219
abet	-12220
alay	-12221
awan	-12222
city	-12223
deen	-12224
edom	-12225
icon	-12226
imer	-12227
isse	-12228
iton	-12229
jack	-12230
lary	-12231
lect	-12232
ocus	-12233
oody	-12234
oong	-12235
orne	-12236
oton	-12237
post	-12238
quee	-12239
rear	-12240
scar	-12241
tees	-12242
tras	-12243
unar	-12244
uris	-12245
zone	-12246
ürtt	-12247
▁#2?	-12248
▁$11	-12249
▁0:1	-12250
▁0–2	-12251
▁1,8	-12252
▁168	-12253
▁178	-12254
▁17:	-12255
▁2,5	-12256
▁235	-12257
▁245	-12258
▁280	-12259
▁291	-12260
▁302	-12261
▁321	-12262
▁375	-12263
▁4.0	-12264
▁4–0	-12265
▁50%	-12266
▁7.0	-12267
▁7.2	-12268
▁734	-12269
▁850	-12270
▁93,	-12271
▁Apr	-12272
▁Bah	-12273
▁Bal	-12274
▁Deb	-12275
▁Els	-12276
▁Hew	-12277
▁Ign	-12278
▁LOS	-12279
▁Mas	-12280
▁Mol	-12281
▁Mom	-12282
▁Nak	-12283
▁Nan	-12284
▁Nav	-12285
▁Oil	-12286
▁PPV	-12287
▁Rus	-12288
▁Tai	-12289
▁Vis	-12290
▁WHO	-12291
▁WIN	-12292
▁WSU	-12293
▁ank	-12294
▁bun	-12295
▁fun	-12296
▁hap	-12297
▁hob	-12298
▁ing	-12299
▁jin	-12300
▁job	-12301
▁jud	-12302
▁kre	-12303
▁kur	-12304
▁lot	-12305
▁mcm	-12306
▁pap	-12307
▁sed	-12308
▁sor	-12309
/2012	-12310
aders	-12311
ameng	-12312
astic	-12313
bines	-12314
comes	-12315
corer	-12316
icult	-12317
oting	-12318
restr	-12319
ucted	-12320
ullik	-12321
▁(1)?	-12322
▁(45)	-12323
▁(57)	-12324
▁(63)	-12325
▁11.9	-12326
▁12.5	-12327
▁1861	-12328
▁1915	-12329
▁3-0?	-12330
▁3-1?	-12331
▁6–1?	-12332
▁89.3	-12333
▁9.13	-12334
▁Carb	-12335
▁Cord	-12336
▁Cour	-12337
▁Fors	-12338
▁Give	-12339
▁Hist	-12340
▁Iran	-12341
▁NCAA	-12342
▁Neon	-12343
▁Ovrs	-12344
▁Plat	-12345
▁Reds	-12346
▁Scot	-12347
▁Shah	-12348
▁THAT	-12349
▁UCLA	-12350
▁Wall	-12351
▁Ward	-12352
▁auto	-12353
▁axis	-12354
▁brew	-12355
▁cold	-12356
▁cond	-12357
▁cork	-12358
▁drum	-12359
▁expl	-12360
▁firm	-12361
▁intr	-12362
▁jump	-12363
▁kite	-12364
▁lynn	-12365
▁nets	-12366
▁pace	-12367
▁pete	-12368
▁pine	-12369
▁rand	-12370
▁seed	-12371
▁shel	-12372
▁slot	-12373
▁stev	-12374
▁vall	-12375
▁wall	-12376
Winner	-12377
airman	-12378
emberg	-12379
ershot	-12380
illies	-12381
option	-12382
ougars	-12383
triang	-12384
writer	-12385
▁(10)?	-12386
▁(2005	-12387
▁(82)?	-12388
▁1,200	-12389
▁102.3	-12390
▁13.11	-12391
▁15.15	-12392
▁1984,	-12393
▁Achie	-12394
▁Baden	-12395
▁Baker	-12396
▁Bronx	-12397
▁Cause	-12398
▁Eddie	-12399
▁Ellis	-12400
▁Girls	-12401
▁Glass	-12402
▁Glenn	-12403
▁Heart	-12404
▁Hydro	-12405
▁Johns	-12406
▁KINKA	-12407
▁Logan	-12408
▁Marty	-12409
▁McDon	-12410
▁Multi	-12411
▁Ports	-12412
▁RESUL	-12413
▁Rhein	-12414
▁Serge	-12415
▁Stamp	-12416
▁Vegas	-12417
▁Wings	-12418
▁alvin	-12419
▁bucks	-12420
▁byron	-12421
▁cause	-12422
▁duffy	-12423
▁frame	-12424
▁fresh	-12425
▁hills	-12426
▁hydra	-12427
▁imper	-12428
▁polit	-12429
▁racer	-12430
▁remix	-12431
▁serve	-12432
▁sight	-12433
▁solar	-12434
▁split	-12435
▁until	-12436
▁upper	-12437
▁woman	-12438
▁yield	-12439
arrator	-12440
episode	-12441
essions	-12442
estants	-12443
igation	-12444
lendale	-12445
ospital	-12446
ovenian	-12447
ucation	-12448
▁Archer	-12449
▁Coding	-12450
▁Exited	-12451
▁Factor	-12452
▁Galaxy	-12453
▁Newman	-12454
▁Newton	-12455
▁Puerto	-12456
▁Purdue	-12457
▁RECNet	-12458
▁Steven	-12459
▁Temple	-12460
▁Tennis	-12461
▁Titans	-12462
▁Turkey	-12463
▁Turner	-12464
▁Versus	-12465
▁Victor	-12466
▁alfred	-12467
▁alonso	-12468
▁barnes	-12469
▁charts	-12470
▁combat	-12471
▁demons	-12472
▁dollar	-12473
▁donald	-12474
▁equals	-12475
▁guests	-12476
▁harris	-12477
▁invest	-12478
▁julius	-12479
▁langer	-12480
▁loaned	-12481
▁longer	-12482
▁marine	-12483
▁munich	-12484
▁muzzle	-12485
▁passed	-12486
▁police	-12487
▁rogers	-12488
▁santos	-12489
▁spouse	-12490
▁stuart	-12491
▁survey	-12492
▁temple	-12493
▁valent	-12494
▁weapon	-12495
▁willis	-12496
Germanic	-12497
neapolis	-12498
versions	-12499
▁100,000	-12500
▁2008-09	-12501
▁Alberto	-12502
▁Assumed	-12503
▁Baseman	-12504
▁Belarus	-12505
▁Bennett	-12506
▁Brother	-12507
▁Charlie	-12508
▁Charter	-12509
▁Creator	-12510
▁Douglas	-12511
▁Emerson	-12512
▁Janeiro	-12513
▁Mozilla	-12514
▁Ordered	-12515
▁Packers	-12516
▁Pioneer	-12517
▁Pregame	-12518
▁Stewart	-12519
▁Tourism	-12520
▁Transit	-12521
▁Univers	-12522
▁Wimmera	-12523
▁allowed	-12524
▁bennett	-12525
▁bristol	-12526
▁carroll	-12527
▁charlie	-12528
▁colbert	-12529
▁holland	-12530
▁jamaica	-12531
▁lengths	-12532
▁letters	-12533
▁limited	-12534
▁minardi	-12535
▁pregame	-12536
▁seville	-12537
▁sources	-12538
▁stadion	-12539
▁tackles	-12540
arborough	-12541
umulative	-12542
▁Downhill	-12543
▁Independ	-12544
▁Lifetime	-12545
▁Mariners	-12546
▁Millions	-12547
▁Mitchell	-12548
▁Resident	-12549
▁Scuderia	-12550
▁Sullivan	-12551
▁Swimming	-12552
▁Trailing	-12553
▁airlines	-12554
▁aperture	-12555
▁belgrade	-12556
▁bernhard	-12557
▁colleges	-12558
▁coverage	-12559
▁cultural	-12560
▁departed	-12561
▁deputies	-12562
▁equation	-12563
▁marshall	-12564
▁nebraska	-12565
▁officine	-12566
▁promoted	-12567
▁riccardo	-12568
▁sullivan	-12569
▁terrestr	-12570
cussionist	-12571
erritories	-12572
ürttemberg	-12573
▁Americans	-12574
▁Moorabbin	-12575
▁Newcastle	-12576
▁Placement	-12577
▁Portrayed	-12578
▁Secondary	-12579
▁Selection	-12580
▁Victories	-12581
▁estimated	-12582
▁interface	-12583
▁lithuania	-12584
▁mandatory	-12585
▁nordiques	-12586
▁penalties	-12587
▁precision	-12588
▁recipient	-12589
▁rodríguez	-12590
▁thousands	-12591
urisdiction	-12592
▁Cancelable	-12593
▁Completion	-12594
▁Dismissals	-12595
▁Government	-12596
▁Multiplier	-12597
▁Nominating	-12598
▁Parliament	-12599
▁Queensland	-12600
▁Volleyball	-12601
▁ambassador	-12602
▁buccaneers	-12603
▁categories	-12604
▁generation	-12605
▁occupation	-12606
▁statistics	-12607
▁sunderland	-12608
▁Attendances	-12609
▁Composition	-12610
▁Development	-12611
▁compression	-12612
▁credentials	-12613
▁information	-12614
▁Shareholding	-12615
▁commonwealth	-12616
▁saskatchewan	-12617
▁participation	-12618
▁preliminaries	-12619
▁transcription	-12620
Br	-12621
LC	-12622
Nr	-12623
SL	-12624
fi	-12625
hc	-12626
mt	-12627
nc	-12628
wi	-12629
wr	-12630
yü	-12631
ña	-12632
öl	-12633
ат	-12634
ба	-12635
ро	-12636
ம்	-12637
០០	-12638
▁é	-12639
-56	-12640
-80	-12641
-98	-12642
.$)	-12643
/24	-12644
123	-12645
150	-12646
170	-12647
175	-12648
187	-12649
197	-12650
202	-12651
236	-12652
244	-12653
256	-12654
265	-12655
268	-12656
292	-12657
321	-12658
44?	-12659
568	-12660
851	-12661
:20	-12662
Act	-12663
OND	-12664
SEK	-12665
WGR	-12666
agi	-12667
ahi	-12668
aku	-12669
aud	-12670
auf	-12671
aze	-12672
bas	-12673
bed	-12674
caa	-12675
cet	-12676
chy	-12677
dat	-12678
deg	-12679
dev	-12680
ebu	-12681
eli	-12682
ely	-12683
enb	-12684
evi	-12685
flu	-12686
fly	-12687
lbf	-12688
mal	-12689
mil	-12690
new	-12691
okn	-12692
omy	-12693
orc	-12694
qqu	-12695
rov	-12696
sha	-12697
tin	-12698
uku	-12699
urz	-12700
wig	-12701
zcz	-12702
zip	-12703
–8)	-12704
–95	-12705
▁("	-12706
▁+7	-12707
▁Az	-12708
▁BA	-12709
▁EX	-12710
▁Fe	-12711
▁Gi	-12712
▁Ji	-12713
▁KM	-12714
▁MI	-12715
▁MS	-12716
▁NJ	-12717
▁Ok	-12718
▁RF	-12719
▁Ub	-12720
▁ai	-12721
▁aw	-12722
▁bp	-12723
▁dj	-12724
▁dl	-12725
▁fk	-12726
▁ig	-12727
▁lg	-12728
▁ll	-12729
▁må	-12730
▁oh	-12731
▁rw	-12732
▁tb	-12733
▁tc	-12734
▁xd	-12735
-03?	-12736
-28?	-12737
.6%?	-12738
/198	-12739
From	-12740
July	-12741
NCAA	-12742
WMAP	-12743
aled	-12744
anca	-12745
asha	-12746
asth	-12747
auts	-12748
bilt	-12749
ceed	-12750
chuk	-12751
colm	-12752
dsor	-12753
eech	-12754
ehle	-12755
etan	-12756
etti	-12757
eyer	-12758
from	-12759
icap	-12760
idis	-12761
ilas	-12762
ilde	-12763
ilia	-12764
inda	-12765
iner	-12766
inet	-12767
ingu	-12768
inol	-12769
ipot	-12770
ises	-12771
isha	-12772
izan	-12773
jord	-12774
kaya	-12775
lago	-12776
liss	-12777
mole	-12778
ofen	-12779
ogen	-12780
olio	-12781
oned	-12782
opez	-12783
oril	-12784
oris	-12785
oyuz	-12786
para	-12787
pics	-12788
prus	-12789
qqud	-12790
quez	-12791
rake	-12792
rine	-12793
swer	-12794
uala	-12795
uary	-12796
ubes	-12797
ucin	-12798
udia	-12799
uras	-12800
uter	-12801
uzzy	-12802
wait	-12803
ález	-12804
ères	-12805
ínez	-12806
▁$15	-12807
▁(36	-12808
▁(62	-12809
▁(65	-12810
▁-98	-12811
▁...	-12812
▁0-3	-12813
▁0–0	-12814
▁1-4	-12815
▁1-5	-12816
▁1-6	-12817
▁1/2	-12818
▁22'	-12819
▁23'	-12820
▁238	-12821
▁239	-12822
▁243	-12823
▁247	-12824
▁25%	-12825
▁25:	-12826
▁285	-12827
▁296	-12828
▁315	-12829
▁330	-12830
▁428	-12831
▁5.2	-12832
▁5.9	-12833
▁57?	-12834
▁6.2	-12835
▁62?	-12836
▁7-0	-12837
▁7-1	-12838
▁7-3	-12839
▁79?	-12840
▁Bod	-12841
▁DAR	-12842
▁Dig	-12843
▁Dom	-12844
▁Esp	-12845
▁FLT	-12846
▁Gat	-12847
▁God	-12848
▁Had	-12849
▁Haz	-12850
▁Kir	-12851
▁Kur	-12852
▁Lau	-12853
▁Lis	-12854
▁Mak	-12855
▁PPP	-12856
▁PTS	-12857
▁Rab	-12858
▁Rey	-12859
▁Rot	-12860
▁Sak	-12861
▁TFR	-12862
▁TNS	-12863
▁Uni	-12864
▁Vit	-12865
▁Viv	-12866
▁Why	-12867
▁ast	-12868
▁bac	-12869
▁cab	-12870
▁dia	-12871
▁dom	-12872
▁dow	-12873
▁eps	-12874
▁hat	-12875
▁kun	-12876
▁rca	-12877
▁sri	-12878
▁tem	-12879
-64=2	-12880
91037	-12881
April	-12882
Brien	-12883
Place	-12884
ables	-12885
alton	-12886
anuel	-12887
apons	-12888
astas	-12889
aters	-12890
awson	-12891
banon	-12892
borah	-12893
croft	-12894
endor	-12895
ensor	-12896
eters	-12897
iency	-12898
iffer	-12899
ighth	-12900
illon	-12901
impia	-12902
imsby	-12903
ising	-12904
itsub	-12905
ittel	-12906
meara	-12907
odore	-12908
oneme	-12909
opold	-12910
ourda	-12911
owers	-12912
point	-12913
rator	-12914
rient	-12915
sburg	-12916
stems	-12917
sters	-12918
ugene	-12919
umpur	-12920
venth	-12921
verde	-12922
wagen	-12923
▁(88)	-12924
▁(90)	-12925
▁(95)	-12926
▁0.14	-12927
▁1.12	-12928
▁13.8	-12929
▁14.8	-12930
▁1860	-12931
▁1880	-12932
▁1885	-12933
▁1888	-12934
▁1922	-12935
▁1927	-12936
▁1:17	-12937
▁1:27	-12938
▁4-2?	-12939
▁5.10	-12940
▁8.15	-12941
▁9.15	-12942
▁Bark	-12943
▁Bids	-12944
▁Book	-12945
▁Bore	-12946
▁Calc	-12947
▁Celt	-12948
▁Coal	-12949
▁Conn	-12950
▁ESPN	-12951
▁Flag	-12952
▁Flat	-12953
▁Hero	-12954
▁Joan	-12955
▁José	-12956
▁Luke	-12957
▁Nets	-12958
▁OWGR	-12959
▁Prop	-12960
▁Punt	-12961
▁RIAA	-12962
▁Stop	-12963
▁Stra	-12964
▁Trim	-12965
▁Trip	-12966
▁Verm	-12967
▁WEEK	-12968
▁WSOP	-12969
▁Wade	-12970
▁Yank	-12971
▁ansi	-12972
▁cant	-12973
▁dive	-12974
▁gimn	-12975
▁hits	-12976
▁lord	-12977
▁mach	-12978
▁mead	-12979
▁mind	-12980
▁mora	-12981
▁oooo	-12982
▁pool	-12983
▁rade	-12984
▁rash	-12985
▁rice	-12986
▁soph	-12987
▁user	-12988
-68-72	-12989
Rating	-12990
Suited	-12991
ampden	-12992
ansson	-12993
aphics	-12994
arnock	-12995
atives	-12996
azzoni	-12997
dalena	-12998
earson	-12999
endall	-13000
gative	-13001
goszcz	-13002
holder	-13003
imajor	-13004
jandro	-13005
linger	-13006
number	-13007
onnell	-13008
ordini	-13009
oshiba	-13010
ossein	-13011
pierre	-13012
points	-13013
porate	-13014
rapped	-13015
rellas	-13016
riguez	-13017
tender	-13018
terfly	-13019
tonnes	-13020
ulsory	-13021
▁(106)	-13022
▁(2013	-13023
▁(55)?	-13024
▁(7–5)	-13025
▁(90)?	-13026
▁(99)?	-13027
▁10:30	-13028
▁11.16	-13029
▁12.12	-13030
▁12.13	-13031
▁12:00	-13032
▁13.5-	-13033
▁14.11	-13034
▁14.15	-13035
▁15.16	-13036
▁17.14	-13037
▁18.12	-13038
▁18.16	-13039
▁18:00	-13040
▁1950?	-13041
▁1952?	-13042
▁1982,	-13043
▁1993,	-13044
▁1998,	-13045
▁2009)	-13046
▁69-71	-13047
▁70-69	-13048
▁71-74	-13049
▁72-67	-13050
▁72-68	-13051
▁72-70	-13052
▁Autom	-13053
▁Began	-13054
▁Brent	-13055
▁Bruno	-13056
▁Casey	-13057
▁Chern	-13058
▁Delta	-13059
▁Deput	-13060
▁Ended	-13061
▁Gabri	-13062
▁Geoff	-13063
▁Going	-13064
▁Honor	-13065
▁Inaug	-13066
▁Jesse	-13067
▁Linda	-13068
▁Metal	-13069
▁Monte	-13070
▁Nixon	-13071
▁Numer	-13072
▁Plate	-13073
▁Regul	-13074
▁Romeo	-13075
▁Towns	-13076
▁Truck	-13077
▁Units	-13078
▁Vista	-13079
▁blank	-13080
▁bryan	-13081
▁chand	-13082
▁child	-13083
▁donor	-13084
▁holly	-13085
▁knock	-13086
▁linda	-13087
▁lived	-13088
▁loses	-13089
▁orbit	-13090
▁postp	-13091
▁pride	-13092
▁randy	-13093
▁revol	-13094
▁rugby	-13095
▁sarah	-13096
▁shock	-13097
▁sixth	-13098
▁sofia	-13099
▁swing	-13100
▁towns	-13101
▁tracy	-13102
▁tyler	-13103
▁usage	-13104
▁worst	-13105
▁worth	-13106
athalie	-13107
atorial	-13108
ctional	-13109
intendo	-13110
omfield	-13111
onduras	-13112
rashers	-13113
rescent	-13114
rington	-13115
tricted	-13116
troller	-13117
ubljana	-13118
ucinich	-13119
étition	-13120
▁(2013)	-13121
▁16,000	-13122
▁Afghan	-13123
▁Airing	-13124
▁Branch	-13125
▁Closed	-13126
▁Commun	-13127
▁Dynamo	-13128
▁Ethnic	-13129
▁Harold	-13130
▁Hughes	-13131
▁Knicks	-13132
▁LOWEST	-13133
▁Louise	-13134
▁Murphy	-13135
▁Museum	-13136
▁Plural	-13137
▁Saturn	-13138
▁Sector	-13139
▁Spirit	-13140
▁Suzuki	-13141
▁Temper	-13142
▁Vuelta	-13143
▁argent	-13144
▁arnold	-13145
▁caller	-13146
▁celtic	-13147
▁counts	-13148
▁dakota	-13149
▁failed	-13150
▁guitar	-13151
▁injury	-13152
▁israel	-13153
▁kyrkje	-13154
▁mccain	-13155
▁minute	-13156
▁mobile	-13157
▁nathan	-13158
▁needed	-13159
▁nicole	-13160
▁parker	-13161
▁patent	-13162
▁perman	-13163
▁phrase	-13164
▁pierce	-13165
▁ration	-13166
▁sacked	-13167
▁summit	-13168
▁victor	-13169
▁willie	-13170
Millions	-13171
electric	-13172
ituation	-13173
omotives	-13174
ornadoes	-13175
triangle	-13176
▁0091037	-13177
▁2007/08	-13178
▁2009-10	-13179
▁Allison	-13180
▁Archive	-13181
▁Bengals	-13182
▁Blazers	-13183
▁Brigade	-13184
▁Bristol	-13185
▁Burnley	-13186
▁COUNTRY	-13187
▁Chelsea	-13188
▁Chipset	-13189
▁Finland	-13190
▁Gymnast	-13191
▁HIGHEST	-13192
▁Jacques	-13193
▁Opinion	-13194
▁Reserve	-13195
▁Ricardo	-13196
▁Romania	-13197
▁Swimmer	-13198
▁Turnout	-13199
▁Ukraine	-13200
▁Workers	-13201
▁affairs	-13202
▁airline	-13203
▁alfieri	-13204
▁cluster	-13205
▁coaster	-13206
▁covered	-13207
▁freleng	-13208
▁gearbox	-13209
▁mcenroe	-13210
▁nielsen	-13211
▁nominal	-13212
▁occured	-13213
▁outside	-13214
▁pattern	-13215
▁phillip	-13216
▁remarks	-13217
▁reunion	-13218
▁revival	-13219
▁reynard	-13220
▁roberto	-13221
▁romania	-13222
▁swedish	-13223
▁systems	-13224
▁traffic	-13225
adowlands	-13226
anderbilt	-13227
arrington	-13228
intendent	-13229
itsubishi	-13230
ockenheim	-13231
unningham	-13232
▁Airlines	-13233
▁Checkout	-13234
▁Columbus	-13235
▁Cosworth	-13236
▁Cyclones	-13237
▁Lifespan	-13238
▁Manitoba	-13239
▁Programs	-13240
▁Spartans	-13241
▁Zimbabwe	-13242
▁alliance	-13243
▁breakers	-13244
▁brighton	-13245
▁clippers	-13246
▁columbus	-13247
▁constant	-13248
▁franklin	-13249
▁humphrey	-13250
▁licensed	-13251
▁railroad	-13252
▁sanskrit	-13253
▁spelling	-13254
▁sponsors	-13255
▁sporting	-13256
▁terminus	-13257
▁tropical	-13258
▁vladimir	-13259
penditures	-13260
troductory	-13261
vitational	-13262
▁Offensive	-13263
▁abolished	-13264
▁bandwidth	-13265
▁beginning	-13266
▁bucharest	-13267
▁formation	-13268
▁franchise	-13269
▁parameter	-13270
▁presented	-13271
▁provinces	-13272
▁rochester	-13273
▁scheduled	-13274
▁wrestlers	-13275
ancellation	-13276
▁Commission	-13277
▁Complement	-13278
▁Goalkeeper	-13279
▁Postseason	-13280
▁Yugoslavia	-13281
▁affiliated	-13282
▁birthplace	-13283
▁catagories	-13284
▁christophe	-13285
▁connection	-13286
▁foundation	-13287
▁identifier	-13288
▁petersburg	-13289
▁preference	-13290
▁previously	-13291
▁Achievement	-13292
▁Compression	-13293
▁Prefectural	-13294
▁Probability	-13295
▁application	-13296
▁candlestick	-13297
▁governorate	-13298
▁heavyweight	-13299
▁inhabitants	-13300
▁locomotives	-13301
▁terrestrial	-13302
International	-13303
▁Architecture	-13304
▁quarterfinal	-13305
▁regionalliga	-13306
")	-13307
1+	-13308
Cl	-13309
DC	-13310
DE	-13311
EG	-13312
FF	-13313
FT	-13314
He	-13315
KE	-13316
PE	-13317
Sl	-13318
Sp	-13319
bx	-13320
jg	-13321
kc	-13322
mb	-13323
ml	-13324
mu	-13325
oj	-13326
yo	-13327
ön	-13328
ко	-13329
▁а	-13330
)",	-13331
-3)	-13332
-44	-13333
.8,	-13334
0,2	-13335
003	-13336
015	-13337
10,	-13338
105	-13339
115	-13340
119	-13341
136	-13342
16?	-13343
183	-13344
20?	-13345
242	-13346
248	-13347
25?	-13348
304	-13349
307	-13350
310	-13351
330	-13352
335	-13353
362	-13354
40)	-13355
5),	-13356
512	-13357
817	-13358
894	-13359
958	-13360
:26	-13361
:50	-13362
Den	-13363
ERS	-13364
Ind	-13365
May	-13366
New	-13367
Pre	-13368
bul	-13369
gil	-13370
had	-13371
hon	-13372
hur	-13373
iab	-13374
imo	-13375
iop	-13376
lat	-13377
lde	-13378
nov	-13379
olt	-13380
roc	-13381
uet	-13382
zel	-13383
–28	-13384
–62	-13385
–94	-13386
–9?	-13387
▁('	-13388
▁.4	-13389
▁7%	-13390
▁AB	-13391
▁AL	-13392
▁AO	-13393
▁AP	-13394
▁HI	-13395
▁HQ	-13396
▁LQ	-13397
▁SO	-13398
▁TT	-13399
▁VI	-13400
▁Ve	-13401
▁bh	-13402
▁bs	-13403
▁dy	-13404
▁kl	-13405
▁lw	-13406
▁ms	-13407
▁pb	-13408
▁pg	-13409
▁pk	-13410
▁rc	-13411
▁ve	-13412
▁wk	-13413
▁wu	-13414
▁yi	-13415
▁yv	-13416
▁–8	-13417
▁–9	-13418
-198	-13419
-34?	-13420
.00%	-13421
.22?	-13422
.4%?	-13423
100)	-13424
=138	-13425
Open	-13426
Week	-13427
West	-13428
acle	-13429
bird	-13430
cean	-13431
ctur	-13432
eley	-13433
ends	-13434
eton	-13435
igen	-13436
ikal	-13437
iker	-13438
lana	-13439
lena	-13440
life	-13441
none	-13442
osta	-13443
pads	-13444
shaw	-13445
ught	-13446
vere	-13447
wchl	-13448
–10?	-13449
–13?	-13450
▁#16	-13451
▁$10	-13452
▁$12	-13453
▁(-1	-13454
▁(.4	-13455
▁(17	-13456
▁(30	-13457
▁1"?	-13458
▁1,0	-13459
▁1,5	-13460
▁12:	-13461
▁13:	-13462
▁164	-13463
▁17'	-13464
▁21'	-13465
▁215	-13466
▁226	-13467
▁230	-13468
▁252	-13469
▁260	-13470
▁268	-13471
▁275	-13472
▁303	-13473
▁312	-13474
▁322	-13475
▁353	-13476
▁360	-13477
▁4,6	-13478
▁4.8	-13479
▁4–1	-13480
▁4–3	-13481
▁5-3	-13482
▁5.1	-13483
▁5.6	-13484
▁650	-13485
▁65?	-13486
▁66,	-13487
▁71?	-13488
▁72?	-13489
▁73?	-13490
▁78?	-13491
▁79,	-13492
▁8-1	-13493
▁88,	-13494
▁9-1	-13495
▁BIG	-13496
▁BRM	-13497
▁Bet	-13498
▁Bos	-13499
▁Bun	-13500
▁Cer	-13501
▁Cob	-13502
▁Cot	-13503
▁Dat	-13504
▁Dru	-13505
▁Gas	-13506
▁Guy	-13507
▁Han	-13508
▁Heb	-13509
▁Hul	-13510
▁IMR	-13511
▁Ira	-13512
▁Iss	-13513
▁Kaw	-13514
▁Lex	-13515
▁McL	-13516
▁NAS	-13517
▁Nam	-13518
▁Nep	-13519
▁Ott	-13520
▁Pin	-13521
▁Ply	-13522
▁Pra	-13523
▁Psy	-13524
▁Rou	-13525
▁TKO	-13526
▁USC	-13527
▁WHo	-13528
▁WJC	-13529
▁Wel	-13530
▁Wit	-13531
▁XII	-13532
▁ach	-13533
▁arc	-13534
▁bej	-13535
▁cag	-13536
▁chi	-13537
▁cho	-13538
▁cot	-13539
▁deb	-13540
▁dob	-13541
▁gab	-13542
▁itv	-13543
▁kal	-13544
▁kay	-13545
▁kel	-13546
▁mcw	-13547
▁mis	-13548
▁ngc	-13549
▁now	-13550
▁pad	-13551
▁por	-13552
▁qld	-13553
▁raz	-13554
▁rip	-13555
▁sco	-13556
▁sel	-13557
▁sne	-13558
▁spl	-13559
▁suk	-13560
▁sul	-13561
▁syn	-13562
▁tod	-13563
▁usc	-13564
▁vit	-13565
▁yak	-13566
6,000	-13567
9,000	-13568
=211?	-13569
actor	-13570
allow	-13571
amera	-13572
antha	-13573
aught	-13574
cosur	-13575
elena	-13576
ellar	-13577
folio	-13578
giate	-13579
ially	-13580
iform	-13581
iment	-13582
incts	-13583
ingen	-13584
istry	-13585
otion	-13586
owler	-13587
rafts	-13588
ridan	-13589
steps	-13590
▁"200	-13591
▁(196	-13592
▁(50)	-13593
▁(53)	-13594
▁(61)	-13595
▁(7)?	-13596
▁(8)?	-13597
▁(93)	-13598
▁1.92	-13599
▁11.1	-13600
▁150?	-13601
▁1766	-13602
▁1825	-13603
▁1876	-13604
▁1904	-13605
▁1921	-13606
▁1:25	-13607
▁1–2?	-13608
▁6-2?	-13609
▁6–0,	-13610
▁8.11	-13611
▁8.23	-13612
▁ASTC	-13613
▁Bird	-13614
▁Boys	-13615
▁Brid	-13616
▁Buch	-13617
▁COMP	-13618
▁Cann	-13619
▁Cond	-13620
▁Elli	-13621
▁Feet	-13622
▁Fitz	-13623
▁Held	-13624
▁Ivan	-13625
▁Kern	-13626
▁Lady	-13627
▁Lans	-13628
▁Lisa	-13629
▁Mall	-13630
▁Mare	-13631
▁Mess	-13632
▁NCBI	-13633
▁Nova	-13634
▁OVER	-13635
▁Plan	-13636
▁Rosa	-13637
▁Safe	-13638
▁Samp	-13639
▁That	-13640
▁Vale	-13641
▁Vinc	-13642
▁Wkts	-13643
▁ajax	-13644
▁atcc	-13645
▁bomb	-13646
▁budd	-13647
▁cand	-13648
▁chem	-13649
▁clar	-13650
▁dark	-13651
▁ding	-13652
▁dist	-13653
▁gard	-13654
▁here	-13655
▁incl	-13656
▁joan	-13657
▁karl	-13658
▁load	-13659
▁maxi	-13660
▁mbit	-13661
▁next	-13662
▁purs	-13663
▁rico	-13664
▁roma	-13665
▁sony	-13666
▁spot	-13667
▁tank	-13668
▁text	-13669
▁tway	-13670
▁walt	-13671
▁wine	-13672
-75=28	-13673
/11/19	-13674
Africa	-13675
ademic	-13676
amengo	-13677
athlon	-13678
boards	-13679
cliffe	-13680
ctares	-13681
ennial	-13682
icence	-13683
iculty	-13684
igator	-13685
lepool	-13686
lewood	-13687
market	-13688
meters	-13689
ration	-13690
▁(103)	-13691
▁(89)?	-13692
▁13.17	-13693
▁19.15	-13694
▁1981,	-13695
▁1991,	-13696
▁4-4-0	-13697
▁70-73	-13698
▁71-68	-13699
▁73-69	-13700
▁9:00?	-13701
▁Adams	-13702
▁Again	-13703
▁Analy	-13704
▁Armen	-13705
▁Basic	-13706
▁Close	-13707
▁Derek	-13708
▁Drama	-13709
▁FLaps	-13710
▁Irwin	-13711
▁Julie	-13712
▁Levin	-13713
▁Loans	-13714
▁Papal	-13715
▁Pedro	-13716
▁Qatar	-13717
▁Separ	-13718
▁Shell	-13719
▁Stand	-13720
▁Swing	-13721
▁Until	-13722
▁Venus	-13723
▁Yield	-13724
▁alain	-13725
▁angle	-13726
▁cecil	-13727
▁condu	-13728
▁cores	-13729
▁dodge	-13730
▁elena	-13731
▁falls	-13732
▁genes	-13733
▁geoff	-13734
▁greek	-13735
▁impul	-13736
▁jonas	-13737
▁julie	-13738
▁karen	-13739
▁logan	-13740
▁magic	-13741
▁marie	-13742
▁mears	-13743
▁mouse	-13744
▁nigel	-13745
▁popul	-13746
▁rosso	-13747
▁sites	-13748
▁slams	-13749
▁speak	-13750
▁tally	-13751
▁tomas	-13752
▁twins	-13753
▁wheat	-13754
Actress	-13755
achment	-13756
forward	-13757
ibility	-13758
ignment	-13759
rawford	-13760
▁5,008?	-13761
▁Actors	-13762
▁Advent	-13763
▁Albums	-13764
▁Anders	-13765
▁Andrea	-13766
▁BIGGER	-13767
▁Barnes	-13768
▁Barony	-13769
▁Barrow	-13770
▁Bayern	-13771
▁Carter	-13772
▁Cinema	-13773
▁Combat	-13774
▁Fisher	-13775
▁Freder	-13776
▁Govern	-13777
▁Graeme	-13778
▁Marion	-13779
▁Miguel	-13780
▁Norris	-13781
▁Person	-13782
▁RESULT	-13783
▁Ravens	-13784
▁Sergio	-13785
▁Sussex	-13786
▁Totals	-13787
▁adults	-13788
▁ballet	-13789
▁castle	-13790
▁ceased	-13791
▁compat	-13792
▁descri	-13793
▁disney	-13794
▁father	-13795
▁gained	-13796
▁graeme	-13797
▁harmon	-13798
▁hubert	-13799
▁hughes	-13800
▁judges	-13801
▁livery	-13802
▁murray	-13803
▁oldest	-13804
▁penske	-13805
▁pixels	-13806
▁prefix	-13807
▁puerto	-13808
▁riding	-13809
▁shield	-13810
▁signed	-13811
▁themes	-13812
▁tobago	-13813
▁vowels	-13814
▁wagner	-13815
▁winton	-13816
stressed	-13817
thousand	-13818
▁1986-87	-13819
▁1990-91	-13820
▁Android	-13821
▁Awardee	-13822
▁Barbara	-13823
▁Batsmen	-13824
▁Brabham	-13825
▁Carrier	-13826
▁Deleted	-13827
▁Imports	-13828
▁Maidens	-13829
▁Miranda	-13830
▁Munster	-13831
▁OVERALL	-13832
▁Pattern	-13833
▁Picture	-13834
▁Poverty	-13835
▁Preston	-13836
▁Rushing	-13837
▁Simpson	-13838
▁Stories	-13839
▁Summary	-13840
▁Viewing	-13841
▁Wounded	-13842
▁artists	-13843
▁assumed	-13844
▁cameron	-13845
▁celtics	-13846
▁classes	-13847
▁clemson	-13848
▁coached	-13849
▁deficit	-13850
▁dodgers	-13851
▁federal	-13852
▁gregory	-13853
▁hurdles	-13854
▁initial	-13855
▁mansell	-13856
▁matchup	-13857
▁montana	-13858
▁nicolas	-13859
▁ongoing	-13860
▁pageant	-13861
▁penalty	-13862
▁persons	-13863
▁ricardo	-13864
▁rushing	-13865
▁session	-13866
▁staples	-13867
▁variety	-13868
▁virtual	-13869
▁younger	-13870
utherford	-13871
ventional	-13872
▁2004-05?	-13873
▁Alliance	-13874
▁Brighton	-13875
▁Clippers	-13876
▁Croatian	-13877
▁Exchange	-13878
▁Exercise	-13879
▁Harrison	-13880
▁Kitmaker	-13881
▁McDonald	-13882
▁Ordinary	-13883
▁Pasadena	-13884
▁Religion	-13885
▁Teleplay	-13886
▁Terminus	-13887
▁adjusted	-13888
▁assembly	-13889
▁brooklyn	-13890
▁checkout	-13891
▁citation	-13892
▁cylinder	-13893
▁designer	-13894
▁elevated	-13895
▁exercise	-13896
▁families	-13897
▁gimnasia	-13898
▁jennifer	-13899
▁leonardo	-13900
▁parallel	-13901
▁rankings	-13902
▁scottish	-13903
▁slovakia	-13904
▁specific	-13905
▁trinidad	-13906
▁vertical	-13907
▁wolfgang	-13908
▁Alexandra	-13909
▁Headphone	-13910
▁Languages	-13911
▁Magnitude	-13912
▁Mickelson	-13913
▁Reporters	-13914
▁Southwest	-13915
▁Stevenson	-13916
▁alexandra	-13917
▁bulgarian	-13918
▁commander	-13919
▁committee	-13920
▁decreased	-13921
▁frankfurt	-13922
▁inflation	-13923
▁leicester	-13924
▁ljubljana	-13925
▁malaysian	-13926
▁residence	-13927
▁ridership	-13928
Transmitter	-13929
▁Basketball	-13930
▁Connection	-13931
▁Investment	-13932
▁Luxembourg	-13933
▁Macedonian	-13934
▁Winchester	-13935
▁attachment	-13936
▁luxembourg	-13937
▁weightlift	-13938
▁Completions	-13939
▁Electricity	-13940
▁Operational	-13941
▁Partnership	-13942
▁Roughriders	-13943
▁estudiantes	-13944
▁morgenstern	-13945
▁warrnambool	-13946
▁Holmenkollen	-13947
▁Peterborough	-13948
▁Premierships	-13949
▁northwestern	-13950
▁nationalities	-13951
▁panathinaikos	-13952
▁wolverhampton	-13953
*?	-13954
/[	-13955
AG	-13956
AJ	-13957
BR	-13958
Ex	-13959
Go	-13960
MC	-13961
OE	-13962
VF	-13963
WS	-13964
Wh	-13965
[2	-13966
bp	-13967
bw	-13968
dj	-13969
iš	-13970
jc	-13971
lf	-13972
uu	-13973
xy	-13974
ád	-13975
ée	-13976
él	-13977
ša	-13978
ри	-13979
தம	-13980
▁č	-13981
▁μ	-13982
▁д	-13983
-47	-13984
-51	-13985
-61	-13986
...	-13987
.71	-13988
/00	-13989
/15	-13990
/26	-13991
/30	-13992
005	-13993
020	-13994
112	-13995
116	-13996
15:	-13997
15?	-13998
185	-13999
18?	-14000
233	-14001
270	-14002
3,6	-14003
303	-14004
308	-14005
379	-14006
4),	-14007
403	-14008
451	-14009
60?	-14010
763	-14011
878	-14012
997	-14013
ACX	-14014
And	-14015
ISL	-14016
ITY	-14017
Rec	-14018
Sof	-14019
ahu	-14020
ako	-14021
api	-14022
aus	-14023
cap	-14024
cci	-14025
cko	-14026
emy	-14027
gal	-14028
iak	-14029
ibe	-14030
jin	-14031
jör	-14032
kan	-14033
lla	-14034
may	-14035
omo	-14036
opf	-14037
ovs	-14038
pac	-14039
rec	-14040
teo	-14041
tic	-14042
try	-14043
uli	-14044
umi	-14045
uto	-14046
vio	-14047
xxx	-14048
you	-14049
yut	-14050
zek	-14051
zig	-14052
ótt	-14053
ğlu	-14054
தமி	-14055
–29	-14056
–3)	-14057
–3,	-14058
–34	-14059
–91	-14060
▁+9	-14061
▁2.	-14062
▁3’	-14063
▁Bi	-14064
▁EN	-14065
▁FB	-14066
▁Ju	-14067
▁KR	-14068
▁LT	-14069
▁MX	-14070
▁OR	-14071
▁SA	-14072
▁SG	-14073
▁TX	-14074
▁Yi	-14075
▁cw	-14076
▁dv	-14077
▁fe	-14078
▁fi	-14079
▁gw	-14080
▁jh	-14081
▁pé	-14082
▁rl	-14083
▁tx	-14084
▁ub	-14085
▁yr	-14086
▁–4	-14087
▁−9	-14088
-23?	-14089
-29?	-14090
-919	-14091
.000	-14092
.22%	-14093
.255	-14094
.40?	-14095
.5%?	-14096
8,29	-14097
931)	-14098
AMES	-14099
Bank	-14100
GAIN	-14101
High	-14102
Play	-14103
SION	-14104
abit	-14105
acci	-14106
acey	-14107
achi	-14108
aggi	-14109
ahan	-14110
alon	-14111
arno	-14112
arro	-14113
asar	-14114
auge	-14115
avas	-14116
berw	-14117
bull	-14118
cabi	-14119
cano	-14120
ccan	-14121
cock	-14122
dorf	-14123
ecam	-14124
edal	-14125
eler	-14126
ević	-14127
fano	-14128
geki	-14129
hele	-14130
ibur	-14131
icul	-14132
iddi	-14133
ihar	-14134
ills	-14135
inea	-14136
ingy	-14137
inki	-14138
itra	-14139
iyai	-14140
izer	-14141
jabi	-14142
kish	-14143
lene	-14144
lesi	-14145
lyde	-14146
lyph	-14147
mart	-14148
melo	-14149
nian	-14150
obyl	-14151
odaf	-14152
ogne	-14153
omav	-14154
onie	-14155
onna	-14156
orte	-14157
ovia	-14158
ovny	-14159
pine	-14160
rees	-14161
rice	-14162
rond	-14163
room	-14164
rust	-14165
seud	-14166
sons	-14167
stop	-14168
tias	-14169
tyre	-14170
ucle	-14171
uits	-14172
ursk	-14173
usta	-14174
walk	-14175
werp	-14176
ória	-14177
–103	-14178
–15?	-14179
▁"15	-14180
▁$25	-14181
▁$29	-14182
▁$5,	-14183
▁(38	-14184
▁(67	-14185
▁(72	-14186
▁+44	-14187
▁0:2	-14188
▁1)"	-14189
▁173	-14190
▁1–3	-14191
▁2-5	-14192
▁20:	-14193
▁219	-14194
▁244	-14195
▁249	-14196
▁258	-14197
▁262	-14198
▁273	-14199
▁281	-14200
▁318	-14201
▁320	-14202
▁346	-14203
▁348	-14204
▁352	-14205
▁368	-14206
▁369	-14207
▁37%	-14208
▁377	-14209
▁3–3	-14210
▁414	-14211
▁416	-14212
▁440	-14213
▁450	-14214
▁4–2	-14215
▁51?	-14216
▁640	-14217
▁7-2	-14218
▁74?	-14219
▁76,	-14220
▁77?	-14221
▁82?	-14222
▁84,	-14223
▁87,	-14224
▁9-4	-14225
▁Adv	-14226
▁Ali	-14227
▁Asc	-14228
▁Bon	-14229
▁CBS	-14230
▁DID	-14231
▁Dup	-14232
▁EPA	-14233
▁Eli	-14234
▁Era	-14235
▁Fed	-14236
▁Fur	-14237
▁GFL	-14238
▁GMT	-14239
▁GRT	-14240
▁HDR	-14241
▁Kal	-14242
▁Koh	-14243
▁LAN	-14244
▁Lag	-14245
▁Lam	-14246
▁Mik	-14247
▁Mul	-14248
▁Nag	-14249
▁Nar	-14250
▁Now	-14251
▁Osb	-14252
▁PRO	-14253
▁Raj	-14254
▁Rud	-14255
▁SFC	-14256
▁Sor	-14257
▁Tac	-14258
▁Ted	-14259
▁Tul	-14260
▁Yan	-14261
▁]/[	-14262
▁abc	-14263
▁aik	-14264
▁aqu	-14265
▁boh	-14266
▁byd	-14267
▁dfv	-14268
▁dnq	-14269
▁elk	-14270
▁epa	-14271
▁erp	-14272
▁eye	-14273
▁fus	-14274
▁gts	-14275
▁hey	-14276
▁jae	-14277
▁kak	-14278
▁ker	-14279
▁lay	-14280
▁lbs	-14281
▁lex	-14282
▁lib	-14283
▁lig	-14284
▁lit	-14285
▁liv	-14286
▁ltd	-14287
▁lun	-14288
▁maz	-14289
▁meh	-14290
▁mou	-14291
▁pon	-14292
▁raj	-14293
▁saf	-14294
▁slo	-14295
▁tad	-14296
▁tat	-14297
▁tba	-14298
▁ted	-14299
▁urs	-14300
▁vie	-14301
▁தமி	-14302
-1009	-14303
=100)	-14304
Night	-14305
Tahir	-14306
Urban	-14307
adesh	-14308
affir	-14309
afila	-14310
again	-14311
agram	-14312
agreb	-14313
aheen	-14314
alami	-14315
amble	-14316
amese	-14317
amine	-14318
ammad	-14319
angan	-14320
anner	-14321
annis	-14322
apoli	-14323
ascar	-14324
asper	-14325
atine	-14326
backs	-14327
becca	-14328
byter	-14329
cials	-14330
cible	-14331
cules	-14332
dated	-14333
elton	-14334
errer	-14335
etown	-14336
etton	-14337
garve	-14338
guson	-14339
haust	-14340
hella	-14341
idden	-14342
ierra	-14343
illan	-14344
inney	-14345
iopia	-14346
leman	-14347
ocate	-14348
okker	-14349
olmes	-14350
omore	-14351
ondiw	-14352
oning	-14353
opoul	-14354
ordin	-14355
orley	-14356
osier	-14357
osion	-14358
otine	-14359
ovski	-14360
rance	-14361
resno	-14362
riest	-14363
rizio	-14364
stars	-14365
tices	-14366
treme	-14367
trols	-14368
uffix	-14369
ungle	-14370
urban	-14371
usive	-14372
uvian	-14373
vgeny	-14374
ysvik	-14375
óttir	-14376
▁$25,	-14377
▁(119	-14378
▁(125	-14379
▁(22)	-14380
▁(4)?	-14381
▁(42)	-14382
▁(48)	-14383
▁(78)	-14384
▁(96)	-14385
▁-102	-14386
▁0–1?	-14387
▁102?	-14388
▁1036	-14389
▁109?	-14390
▁11.5	-14391
▁11.7	-14392
▁12.7	-14393
▁12.8	-14394
▁13.9	-14395
▁14.2	-14396
▁1872	-14397
▁1873	-14398
▁1874	-14399
▁1883	-14400
▁1884	-14401
▁1933	-14402
▁1:20	-14403
▁1:44	-14404
▁1:48	-14405
▁2,46	-14406
▁2-4?	-14407
▁2.61	-14408
▁3801	-14409
▁3–0?	-14410
▁5-0?	-14411
▁5-1?	-14412
▁6.12	-14413
▁6–7,	-14414
▁7-5,	-14415
▁7.12	-14416
▁8.13	-14417
▁8.14	-14418
▁87.5	-14419
▁9.17	-14420
▁9.18	-14421
▁9.22	-14422
▁Amar	-14423
▁Bloc	-14424
▁Boat	-14425
▁Bord	-14426
▁Cant	-14427
▁Cups	-14428
▁Dark	-14429
▁Erik	-14430
▁Fare	-14431
▁Gian	-14432
▁Gree	-14433
▁Hans	-14434
▁Heir	-14435
▁Herr	-14436
▁Inch	-14437
▁Jill	-14438
▁Kate	-14439
▁Kind	-14440
▁LPGA	-14441
▁Like	-14442
▁Luca	-14443
▁Mbit	-14444
▁Mind	-14445
▁Neck	-14446
▁Pool	-14447
▁Ride	-14448
▁Rudy	-14449
▁Sach	-14450
▁Snow	-14451
▁Stat	-14452
▁Text	-14453
▁Trin	-14454
▁Twin	-14455
▁Well	-14456
▁Wine	-14457
▁capt	-14458
▁carb	-14459
▁chad	-14460
▁crit	-14461
▁cust	-14462
▁datv	-14463
▁duck	-14464
▁emma	-14465
▁epic	-14466
▁food	-14467
▁gior	-14468
▁haas	-14469
▁hugh	-14470
▁iata	-14471
▁jake	-14472
▁kerr	-14473
▁lanc	-14474
▁lear	-14475
▁liga	-14476
▁mast	-14477
▁mick	-14478
▁mild	-14479
▁mine	-14480
▁pain	-14481
▁prot	-14482
▁rays	-14483
▁scul	-14484
▁shah	-14485
▁supp	-14486
▁terr	-14487
▁tian	-14488
▁troy	-14489
▁tues	-14490
▁verd	-14491
-72-67	-14492
-72-68	-14493
Engine	-14494
GAINST	-14495
Number	-14496
Sofres	-14497
alling	-14498
armbar	-14499
arnell	-14500
atures	-14501
champs	-14502
chenko	-14503
ellout	-14504
emouth	-14505
enberg	-14506
engine	-14507
entzen	-14508
ermain	-14509
errill	-14510
ievers	-14511
illery	-14512
inated	-14513
iridae	-14514
isease	-14515
iskopf	-14516
ksandr	-14517
leston	-14518
naught	-14519
nstein	-14520
offman	-14521
others	-14522
oulter	-14523
ovenia	-14524
reruns	-14525
ricane	-14526
ritory	-14527
singer	-14528
spaper	-14529
ventry	-14530
▁(100)	-14531
▁(107)	-14532
▁(112)	-14533
▁(120)	-14534
▁(66)?	-14535
▁(68)?	-14536
▁(73)?	-14537
▁(75)?	-14538
▁(76)?	-14539
▁(80)?	-14540
▁(83)?	-14541
▁(86)?	-14542
▁(88)?	-14543
▁10.15	-14544
▁11.10	-14545
▁12.16	-14546
▁12.19	-14547
▁14.19	-14548
▁15.17	-14549
▁17.13	-14550
▁1926?	-14551
▁1941?	-14552
▁1972,	-14553
▁1983,	-14554
▁2013,	-14555
▁67-71	-14556
▁74-74	-14557
▁978-1	-14558
▁Adult	-14559
▁Agent	-14560
▁Amiga	-14561
▁Buddh	-14562
▁Chile	-14563
▁Drobo	-14564
▁Elect	-14565
▁Giles	-14566
▁Grace	-14567
▁Heavy	-14568
▁Joint	-14569
▁Jonas	-14570
▁Khmer	-14571
▁Kursk	-14572
▁Lakes	-14573
▁Lites	-14574
▁Offer	-14575
▁Perry	-14576
▁Phase	-14577
▁Pride	-14578
▁Ridge	-14579
▁Rufus	-14580
▁Seoul	-14581
▁Serie	-14582
▁Spent	-14583
▁Spurs	-14584
▁Squad	-14585
▁Stade	-14586
▁Stuff	-14587
▁Types	-14588
▁USISL	-14589
▁Valid	-14590
▁Vijay	-14591
▁daily	-14592
▁faldo	-14593
▁favor	-14594
▁franc	-14595
▁frequ	-14596
▁gabri	-14597
▁goran	-14598
▁heats	-14599
▁jesse	-14600
▁maker	-14601
▁moves	-14602
▁obese	-14603
▁perry	-14604
▁plans	-14605
▁plaza	-14606
▁ridge	-14607
▁tulsa	-14608
▁voter	-14609
Simpson	-14610
acrosse	-14611
actress	-14612
against	-14613
aterina	-14614
averley	-14615
chestra	-14616
drivers	-14617
entiary	-14618
ershire	-14619
fluence	-14620
iberger	-14621
ichella	-14622
illiams	-14623
iovanni	-14624
kirchen	-14625
lenipot	-14626
odafone	-14627
omerset	-14628
onsible	-14629
overted	-14630
percent	-14631
reation	-14632
regates	-14633
sterdam	-14634
uchovny	-14635
uttgart	-14636
wardene	-14637
▁(105)?	-14638
▁(1931)	-14639
▁Agency	-14640
▁Allied	-14641
▁Auburn	-14642
▁Baylor	-14643
▁Butler	-14644
▁Castle	-14645
▁Claude	-14646
▁Compet	-14647
▁Cooper	-14648
▁Energy	-14649
▁Execut	-14650
▁Fiscal	-14651
▁Future	-14652
▁Gallup	-14653
▁Hebrew	-14654
▁Hockey	-14655
▁Italia	-14656
▁Living	-14657
▁Milton	-14658
▁Nature	-14659
▁Oricon	-14660
▁Perpet	-14661
▁Pierce	-14662
▁Podium	-14663
▁Profit	-14664
▁Retail	-14665
▁Return	-14666
▁SECOND	-14667
▁Saffir	-14668
▁Scient	-14669
▁Senate	-14670
▁Stages	-14671
▁Stroke	-14672
▁Triple	-14673
▁Vivian	-14674
▁Xavier	-14675
▁accred	-14676
▁adrian	-14677
▁auburn	-14678
▁autumn	-14679
▁breast	-14680
▁bullet	-14681
▁cairns	-14682
▁charge	-14683
▁comedy	-14684
▁doctor	-14685
▁dublin	-14686
▁follow	-14687
▁harold	-14688
▁herman	-14689
▁hobart	-14690
▁hybrid	-14691
▁jenson	-14692
▁laredo	-14693
▁listen	-14694
▁living	-14695
▁louise	-14696
▁nissan	-14697
▁option	-14698
▁pacers	-14699
▁pohang	-14700
▁purdue	-14701
▁rachel	-14702
▁rubens	-14703
▁shares	-14704
▁sorted	-14705
▁spiral	-14706
▁splice	-14707
▁stoner	-14708
▁trevor	-14709
▁triple	-14710
▁vacant	-14711
▁viewer	-14712
December	-14713
Timeslot	-14714
afayette	-14715
amboanga	-14716
atherine	-14717
byterian	-14718
controls	-14719
ecamatan	-14720
enhauser	-14721
ferences	-14722
ications	-14723
isclosed	-14724
ordinary	-14725
pendence	-14726
ronesian	-14727
unthorpe	-14728
▁2006/07	-14729
▁2011/12	-14730
▁AGAINST	-14731
▁Account	-14732
▁Aprilia	-14733
▁Bradley	-14734
▁Bubbles	-14735
▁Cardiff	-14736
▁Catches	-14737
▁Croatia	-14738
▁Dragons	-14739
▁Freight	-14740
▁Garrett	-14741
▁GenBank	-14742
▁Gilbert	-14743
▁Goodman	-14744
▁Hamburg	-14745
▁Higgins	-14746
▁Islands	-14747
▁Jianshu	-14748
▁Knights	-14749
▁Liscumb	-14750
▁Manning	-14751
▁Married	-14752
▁Meeting	-14753
▁Nigeria	-14754
▁Pentium	-14755
▁Perfect	-14756
▁Regions	-14757
▁Shuttle	-14758
▁Strongs	-14759
▁Südwest	-14760
▁Trevino	-14761
▁Tujunga	-14762
▁Verizon	-14763
▁Veteran	-14764
▁analyst	-14765
▁andreas	-14766
▁bangkok	-14767
▁cardiff	-14768
▁chamber	-14769
▁collect	-14770
▁comment	-14771
▁consort	-14772
▁costume	-14773
▁display	-14774
▁duchess	-14775
▁evicted	-14776
▁expires	-14777
▁ganassi	-14778
▁history	-14779
▁jessica	-14780
▁journey	-14781
▁minimal	-14782
▁opinion	-14783
▁shuttle	-14784
▁studios	-14785
▁swindon	-14786
▁varsity	-14787
▁viewing	-14788
▁weapons	-14789
-72-72=28	-14790
annesburg	-14791
berwolves	-14792
ilmarnock	-14793
inguished	-14794
territory	-14795
▁1990–199	-14796
▁69-69=13	-14797
▁Acquired	-14798
▁Belgrade	-14799
▁Benjamin	-14800
▁Bulldogs	-14801
▁Calendar	-14802
▁Complete	-14803
▁Expected	-14804
▁External	-14805
▁Finishes	-14806
▁Fixtures	-14807
▁Identity	-14808
▁Interact	-14809
▁Kucinich	-14810
▁McNamara	-14811
▁Mercosur	-14812
▁Pavilion	-14813
▁Pictures	-14814
▁Pressure	-14815
▁Rankings	-14816
▁Schedule	-14817
▁Straight	-14818
▁Valencia	-14819
▁Wireless	-14820
▁branches	-14821
▁bromwich	-14822
▁caroline	-14823
▁catholic	-14824
▁concacaf	-14825
▁confeder	-14826
▁conflict	-14827
▁delaware	-14828
▁downhill	-14829
▁exchange	-14830
▁explorer	-14831
▁famiglia	-14832
▁forsythe	-14833
▁garfield	-14834
▁gonzalez	-14835
▁harrison	-14836
▁hereford	-14837
▁manitoba	-14838
▁millwall	-14839
▁nacional	-14840
▁networks	-14841
▁particle	-14842
▁placings	-14843
▁rainfall	-14844
▁recently	-14845
▁relation	-14846
▁seahawks	-14847
▁sideline	-14848
▁softball	-14849
▁tagliani	-14850
▁wrestler	-14851
attendance	-14852
estershire	-14853
ournemouth	-14854
▁2000-2005	-14855
▁2006-2007	-14856
▁Arrowhead	-14857
▁Discovery	-14858
▁Estimated	-14859
▁Inglewood	-14860
▁Institute	-14861
▁Leicester	-14862
▁Microsoft	-14863
▁Precincts	-14864
▁Thickness	-14865
▁Treasurer	-14866
▁armstrong	-14867
▁assembled	-14868
▁bydgoszcz	-14869
▁cambridge	-14870
▁concordia	-14871
▁divisions	-14872
▁edinburgh	-14873
▁extension	-14874
▁headphone	-14875
▁mechanism	-14876
▁microsoft	-14877
▁plurality	-14878
▁postponed	-14879
▁sebastian	-14880
▁socialist	-14881
▁submitted	-14882
▁sébastien	-14883
compétition	-14884
▁Characters	-14885
▁Divisional	-14886
▁Downstream	-14887
▁Equatorial	-14888
▁Experience	-14889
▁Louisville	-14890
▁Wellington	-14891
▁competitor	-14892
▁discipline	-14893
▁dismissals	-14894
▁olympiacos	-14895
▁portsmouth	-14896
▁prefecture	-14897
▁propulsion	-14898
▁technology	-14899
▁Contestants	-14900
▁Corporation	-14901
▁Expenditure	-14902
▁Information	-14903
▁Temperature	-14904
▁Voivodeship	-14905
▁barrichello	-14906
▁callanetics	-14907
▁educational	-14908
▁measurement	-14909
▁transmitter	-14910
ockenheimring	-14911
▁Incorporated	-14912
▁broadcasting	-14913
▁independence	-14914
▁jacksonville	-14915
▁libertadores	-14916
▁renomination	-14917
▁unemployment	-14918
lenipotentiary	-14919
▁Entertainment	-14920
▁Polyunsaturated	-14921
▁polyunsaturated	-14922
)"	-14923
-?	-14924
AZ	-14925
Bl	-14926
Bo	-14927
IA	-14928
My	-14929
Pe	-14930
Ph	-14931
UC	-14932
WU	-14933
bn	-14934
jt	-14935
lp	-14936
md	-14937
mk	-14938
my	-14939
so	-14940
zl	-14941
▁ō	-14942
%)?	-14943
-60	-14944
-83	-14945
-8?	-14946
016	-14947
021	-14948
049	-14949
066	-14950
096	-14951
1,2	-14952
11?	-14953
127	-14954
143	-14955
14?	-14956
176	-14957
212	-14958
218	-14959
223	-14960
24?	-14961
252	-14962
291	-14963
3,9	-14964
306	-14965
34?	-14966
354	-14967
372	-14968
398	-14969
486	-14970
5,7	-14971
520	-14972
530	-14973
6),	-14974
6,8	-14975
671	-14976
675	-14977
69?	-14978
883	-14979
9),	-14980
:31	-14981
APS	-14982
ART	-14983
DSL	-14984
FOR	-14985
Gal	-14986
IDS	-14987
LES	-14988
Min	-14989
One	-14990
Spe	-14991
acs	-14992
asi	-14993
atu	-14994
ben	-14995
bey	-14996
cio	-14997
cop	-14998
erg	-14999
hee	-15000
iao	-15001
lis	-15002
nar	-15003
nor	-15004
oid	-15005
oso	-15006
pix	-15007
pre	-15008
rix	-15009
–2,	-15010
–4,	-15011
–86	-15012
▁#,	-15013
▁(>	-15014
▁1/	-15015
▁3.	-15016
▁AD	-15017
▁BW	-15018
▁CN	-15019
▁DI	-15020
▁DY	-15021
▁Dé	-15022
▁FG	-15023
▁Fu	-15024
▁GO	-15025
▁IL	-15026
▁Ik	-15027
▁KV	-15028
▁LW	-15029
▁MH	-15030
▁RP	-15031
▁SV	-15032
▁WR	-15033
▁Yr	-15034
▁ds	-15035
▁nr	-15036
▁tg	-15037
▁wi	-15038
▁wt	-15039
▁–7	-15040
-02?	-15041
-09?	-15042
-196	-15043
-197	-15044
-5)?	-15045
-7)?	-15046
.0%?	-15047
.02?	-15048
.8%?	-15049
.9%?	-15050
4000	-15051
Cats	-15052
HOOL	-15053
Life	-15054
Lost	-15055
MBER	-15056
Paul	-15057
airy	-15058
akim	-15059
area	-15060
bill	-15061
card	-15062
char	-15063
dock	-15064
egro	-15065
enso	-15066
gers	-15067
ilio	-15068
inho	-15069
irty	-15070
itte	-15071
izes	-15072
kiss	-15073
llie	-15074
mant	-15075
meet	-15076
mers	-15077
mmol	-15078
open	-15079
otto	-15080
oved	-15081
oyle	-15082
rose	-15083
vert	-15084
vian	-15085
yles	-15086
–104	-15087
–16?	-15088
–3)?	-15089
▁"10	-15090
▁$37	-15091
▁163	-15092
▁211	-15093
▁223	-15094
▁233	-15095
▁23:	-15096
▁246	-15097
▁251	-15098
▁272	-15099
▁28%	-15100
▁284	-15101
▁290	-15102
▁336	-15103
▁343	-15104
▁385	-15105
▁4.3	-15106
▁401	-15107
▁441	-15108
▁487	-15109
▁4–5	-15110
▁5.3	-15111
▁54%	-15112
▁560	-15113
▁572	-15114
▁58?	-15115
▁5–4	-15116
▁5–7	-15117
▁6-6	-15118
▁6-9	-15119
▁62%	-15120
▁627	-15121
▁8.0	-15122
▁82,	-15123
▁84?	-15124
▁85,	-15125
▁Bri	-15126
▁COM	-15127
▁Cro	-15128
▁Din	-15129
▁Eld	-15130
▁Ern	-15131
▁Fal	-15132
▁Fro	-15133
▁Fum	-15134
▁GRE	-15135
▁Joy	-15136
▁Las	-15137
▁NVR	-15138
▁Pad	-15139
▁Poc	-15140
▁Pod	-15141
▁RET	-15142
▁Ran	-15143
▁Rōm	-15144
▁Sel	-15145
▁Sne	-15146
▁Sox	-15147
▁USL	-15148
▁Wes	-15149
▁aka	-15150
▁ali	-15151
▁amp	-15152
▁bet	-15153
▁cbc	-15154
▁cbf	-15155
▁cou	-15156
▁ddr	-15157
▁dns	-15158
▁dog	-15159
▁emm	-15160
▁gps	-15161
▁ita	-15162
▁jar	-15163
▁kad	-15164
▁lmp	-15165
▁meg	-15166
▁mes	-15167
▁nad	-15168
▁nam	-15169
▁oak	-15170
▁pag	-15171
▁pau	-15172
▁pes	-15173
▁pic	-15174
▁raw	-15175
▁rup	-15176
▁sin	-15177
▁suc	-15178
▁tab	-15179
▁tal	-15180
▁tip	-15181
▁tow	-15182
▁uip	-15183
▁usl	-15184
▁veg	-15185
▁vik	-15186
▁wer	-15187
▁yam	-15188
▁–10	-15189
-2009	-15190
=210?	-15191
=215?	-15192
Proof	-15193
allan	-15194
alore	-15195
edian	-15196
esper	-15197
essen	-15198
ether	-15199
gbast	-15200
illes	-15201
isons	-15202
mpire	-15203
ointe	-15204
orton	-15205
prise	-15206
qmjhl	-15207
stead	-15208
tings	-15209
trict	-15210
umble	-15211
▁"1",	-15212
▁%200	-15213
▁(3)?	-15214
▁(34)	-15215
▁(49)	-15216
▁(5)?	-15217
▁(60)	-15218
▁(67)	-15219
▁(92)	-15220
▁0-0?	-15221
▁1.97	-15222
▁103?	-15223
▁105,	-15224
▁114?	-15225
▁13,6	-15226
▁15.5	-15227
▁16.7	-15228
▁16.9	-15229
▁17.7	-15230
▁1853	-15231
▁1858	-15232
▁1865	-15233
▁1866	-15234
▁1892	-15235
▁1:09	-15236
▁1:15	-15237
▁1:34	-15238
▁1–0,	-15239
▁2-3?	-15240
▁2200	-15241
▁3-3?	-15242
▁3:50	-15243
▁3–2?	-15244
▁4-3?	-15245
▁5-7,	-15246
▁5–7?	-15247
▁6.11	-15248
▁ARWU	-15249
▁Barr	-15250
▁Bass	-15251
▁Cath	-15252
▁Cebu	-15253
▁Chin	-15254
▁Chip	-15255
▁Clos	-15256
▁Conc	-15257
▁Data	-15258
▁Dome	-15259
▁Econ	-15260
▁GAME	-15261
▁Gore	-15262
▁Grey	-15263
▁Hunt	-15264
▁Jama	-15265
▁Just	-15266
▁Kite	-15267
▁Lamb	-15268
▁Lank	-15269
▁Lees	-15270
▁Lett	-15271
▁Lynn	-15272
▁McCr	-15273
▁Mold	-15274
▁Moss	-15275
▁Must	-15276
▁NTFA	-15277
▁None	-15278
▁Outs	-15279
▁Paid	-15280
▁Read	-15281
▁Rice	-15282
▁Rory	-15283
▁Shar	-15284
▁Stay	-15285
▁Sylv	-15286
▁Tank	-15287
▁Wake	-15288
▁aaaa	-15289
▁aces	-15290
▁adri	-15291
▁bats	-15292
▁bold	-15293
▁brid	-15294
▁coal	-15295
▁cuba	-15296
▁dana	-15297
▁dish	-15298
▁duty	-15299
▁este	-15300
▁even	-15301
▁evil	-15302
▁exit	-15303
▁friz	-15304
▁gets	-15305
▁help	-15306
▁jagu	-15307
▁kash	-15308
▁kirk	-15309
▁mets	-15310
▁myst	-15311
▁oran	-15312
▁para	-15313
▁pate	-15314
▁pere	-15315
▁pond	-15316
▁pred	-15317
▁prev	-15318
▁rage	-15319
▁rory	-15320
▁sara	-15321
▁sept	-15322
▁soul	-15323
▁toni	-15324
▁tram	-15325
▁twin	-15326
▁viii	-15327
-2012?	-15328
-66=13	-15329
/2009?	-15330
00,000	-15331
ailing	-15332
analog	-15333
ançois	-15334
apters	-15335
armony	-15336
atient	-15337
connor	-15338
culine	-15339
enario	-15340
enkins	-15341
enthal	-15342
gerald	-15343
harald	-15344
ideast	-15345
igious	-15346
immons	-15347
inders	-15348
oyotes	-15349
phanie	-15350
utures	-15351
▁(0–62	-15352
▁(11)?	-15353
▁(115)	-15354
▁(4–7)	-15355
▁(50)?	-15356
▁(53)?	-15357
▁(57)?	-15358
▁(61)?	-15359
▁(63)?	-15360
▁(78)?	-15361
▁(81)?	-15362
▁(87)?	-15363
▁(91)?	-15364
▁(92)?	-15365
▁(98)?	-15366
▁0-100	-15367
▁107.3	-15368
▁11.12	-15369
▁16-39	-15370
▁16.16	-15371
▁1932?	-15372
▁1948?	-15373
▁1966,	-15374
▁1974,	-15375
▁1985,	-15376
▁1988,	-15377
▁1995,	-15378
▁1996,	-15379
▁1997,	-15380
▁2007(	-15381
▁26-24	-15382
▁4,000	-15383
▁5:00?	-15384
▁68-69	-15385
▁71-71	-15386
▁Alain	-15387
▁Alvin	-15388
▁Angel	-15389
▁Arabs	-15390
▁Aston	-15391
▁Byron	-15392
▁Canal	-15393
▁Catal	-15394
▁Cecil	-15395
▁Chuck	-15396
▁Cliff	-15397
▁Coeff	-15398
▁Const	-15399
▁Corio	-15400
▁Curry	-15401
▁Devil	-15402
▁Early	-15403
▁Elena	-15404
▁GAMES	-15405
▁Genus	-15406
▁Geust	-15407
▁Glouc	-15408
▁Imper	-15409
▁Katie	-15410
▁Large	-15411
▁Lines	-15412
▁Magic	-15413
▁Males	-15414
▁Owned	-15415
▁Pleas	-15416
▁Prior	-15417
▁Rapid	-15418
▁Ryuji	-15419
▁Seven	-15420
▁Sixth	-15421
▁Tujia	-15422
▁Usage	-15423
▁Vault	-15424
▁Wheat	-15425
▁aires	-15426
▁akron	-15427
▁balls	-15428
▁burke	-15429
▁capit	-15430
▁derek	-15431
▁devil	-15432
▁diana	-15433
▁dixon	-15434
▁elgin	-15435
▁fedex	-15436
▁flown	-15437
▁honor	-15438
▁idaho	-15439
▁lanka	-15440
▁myers	-15441
▁naked	-15442
▁obama	-15443
▁paper	-15444
▁parts	-15445
▁plane	-15446
▁pérez	-15447
▁rally	-15448
▁rowed	-15449
▁santa	-15450
▁serge	-15451
▁shank	-15452
▁shape	-15453
▁shawn	-15454
▁silva	-15455
▁steam	-15456
▁steel	-15457
▁undec	-15458
arianne	-15459
average	-15460
cturers	-15461
elnikov	-15462
facture	-15463
gbaston	-15464
oration	-15465
regular	-15466
umption	-15467
▁10:00?	-15468
▁2001–0	-15469
▁Alaska	-15470
▁Alison	-15471
▁Around	-15472
▁Bryant	-15473
▁Budget	-15474
▁Compan	-15475
▁Conrad	-15476
▁Dayton	-15477
▁Demons	-15478
▁Deputy	-15479
▁Fuller	-15480
▁Greece	-15481
▁Hessen	-15482
▁Master	-15483
▁Metres	-15484
▁Muslim	-15485
▁Plains	-15486
▁Rights	-15487
▁Rōmaji	-15488
▁SCHOOL	-15489
▁Shield	-15490
▁Sorted	-15491
▁Stefan	-15492
▁Texans	-15493
▁actors	-15494
▁ashley	-15495
▁astrid	-15496
▁austin	-15497
▁barber	-15498
▁barony	-15499
▁border	-15500
▁branch	-15501
▁buenos	-15502
▁calcul	-15503
▁cannot	-15504
▁coding	-15505
▁compar	-15506
▁damage	-15507
▁danilo	-15508
▁davies	-15509
▁dayton	-15510
▁either	-15511
▁exeter	-15512
▁exited	-15513
▁famous	-15514
▁fangio	-15515
▁grades	-15516
▁guards	-15517
▁irvine	-15518
▁javier	-15519
▁lebron	-15520
▁locale	-15521
▁manual	-15522
▁marino	-15523
▁marion	-15524
▁mongol	-15525
▁nature	-15526
▁nevada	-15527
▁normal	-15528
▁petrol	-15529
▁phones	-15530
▁polite	-15531
▁rabbit	-15532
▁rafael	-15533
▁resort	-15534
▁server	-15535
▁signal	-15536
▁skater	-15537
▁slalom	-15538
▁spread	-15539
▁vacuum	-15540
▁warren	-15541
▁weighs	-15542
ickenham	-15543
ulliksen	-15544
▁2002-03	-15545
▁Brandon	-15546
▁Brewers	-15547
▁Carries	-15548
▁Congreg	-15549
▁Derrick	-15550
▁Element	-15551
▁Holland	-15552
▁Initial	-15553
▁Jessica	-15554
▁Letters	-15555
▁Lindsay	-15556
▁Marques	-15557
▁Mclaren	-15558
▁Million	-15559
▁Minardi	-15560
▁Monthly	-15561
▁Nominal	-15562
▁Nuggets	-15563
▁Profile	-15564
▁Protein	-15565
▁Raptors	-15566
▁Revival	-15567
▁Seating	-15568
▁Section	-15569
▁Spelled	-15570
▁Stadion	-15571
▁Staples	-15572
▁Unknown	-15573
▁Wearing	-15574
▁Working	-15575
▁alianza	-15576
▁attempt	-15577
▁authors	-15578
▁balance	-15579
▁bearers	-15580
▁brother	-15581
▁catches	-15582
▁clinton	-15583
▁cyclist	-15584
▁degrees	-15585
▁derrick	-15586
▁dioxide	-15587
▁douglas	-15588
▁endonym	-15589
▁exhaust	-15590
▁flights	-15591
▁grounds	-15592
▁highway	-15593
▁lindsay	-15594
▁longest	-15595
▁mallala	-15596
▁martina	-15597
▁maurice	-15598
▁medical	-15599
▁natalia	-15600
▁passing	-15601
▁patrese	-15602
▁pirates	-15603
▁showing	-15604
▁simpson	-15605
▁spartak	-15606
▁spelled	-15607
▁spencer	-15608
▁stadler	-15609
▁strange	-15610
▁strongs	-15611
▁surtees	-15612
▁tuesday	-15613
▁valpara	-15614
▁various	-15615
▁working	-15616
September	-15617
Slovenian	-15618
quartered	-15619
riculture	-15620
troverted	-15621
▁67-70=13	-15622
▁Atlético	-15623
▁Bernhard	-15624
▁Capitals	-15625
▁Collison	-15626
▁Crescent	-15627
▁Equation	-15628
▁Features	-15629
▁Fielding	-15630
▁Hartford	-15631
▁Hijikata	-15632
▁Jennifer	-15633
▁Jennings	-15634
▁Penguins	-15635
▁Petacchi	-15636
▁Phillips	-15637
▁Pinnacle	-15638
▁Property	-15639
▁Proposed	-15640
▁Resigned	-15641
▁Senators	-15642
▁Singular	-15643
▁Students	-15644
▁Userpics	-15645
▁Vertical	-15646
▁analysis	-15647
▁apparent	-15648
▁birthday	-15649
▁broadway	-15650
▁business	-15651
▁conquest	-15652
▁currency	-15653
▁defeated	-15654
▁delivery	-15655
▁deportes	-15656
▁disaster	-15657
▁editions	-15658
▁electron	-15659
▁facility	-15660
▁frentzen	-15661
▁gonzález	-15662
▁hastings	-15663
▁inducted	-15664
▁lakeside	-15665
▁lifespan	-15666
▁martínez	-15667
▁namesake	-15668
▁narrator	-15669
▁negative	-15670
▁nicholas	-15671
▁outcomes	-15672
▁parishes	-15673
▁peterson	-15674
▁roosters	-15675
▁shanghai	-15676
▁stirling	-15677
▁upstream	-15678
conference	-15679
▁2009-2010	-15680
▁Component	-15681
▁Continent	-15682
▁Coulthard	-15683
▁Dissolved	-15684
▁Divisions	-15685
▁Elizabeth	-15686
▁Epicenter	-15687
▁Indonesia	-15688
▁Inflation	-15689
▁Mavericks	-15690
▁Parameter	-15691
▁Penalties	-15692
▁Recording	-15693
▁Romanised	-15694
▁Venezuela	-15695
▁announced	-15696
▁attendees	-15697
▁bellerive	-15698
▁blackburn	-15699
▁competing	-15700
▁component	-15701
▁conducted	-15702
▁connaught	-15703
▁delivered	-15704
▁dissolved	-15705
▁hampshire	-15706
▁indonesia	-15707
▁installed	-15708
▁kangaroos	-15709
▁macdonald	-15710
▁mavericks	-15711
▁movements	-15712
▁northwest	-15713
▁statistic	-15714
▁universal	-15715
▁wheelbase	-15716
ustronesian	-15717
▁Bangladesh	-15718
▁Buccaneers	-15719
▁Fittipaldi	-15720
▁Individual	-15721
▁Kazakhstan	-15722
▁Pakistanis	-15723
▁Restaurant	-15724
▁Sacramento	-15725
▁Songwriter	-15726
▁downstream	-15727
▁efficiency	-15728
▁portuguese	-15729
▁providence	-15730
▁recipients	-15731
▁restaurant	-15732
▁richardson	-15733
▁succession	-15734
▁twickenham	-15735
▁Appointment	-15736
▁Callanetics	-15737
▁Manufacture	-15738
▁Progressive	-15739
▁achievement	-15740
▁dbeingtrict	-15741
▁dominikovic	-15742
▁frequencies	-15743
▁nominations	-15744
▁Cancellation	-15745
▁Jurisdiction	-15746
▁acceleration	-15747
▁breaststroke	-15748
▁institutions	-15749
▁northeastern	-15750
▁peterborough	-15751
▁relationship	-15752
▁temperatures	-15753
▁Institutional	-15754
▁czechoslovakia	-15755
+?	-15756
/-	-15757
5%	-15758
7-	-15759
EZ	-15760
HF	-15761
HP	-15762
HT	-15763
IM	-15764
LZ	-15765
Ne	-15766
PC	-15767
SA	-15768
SE	-15769
WY	-15770
ZE	-15771
fo	-15772
pb	-15773
pc	-15774
pk	-15775
sv	-15776
vn	-15777
wo	-15778
ws	-15779
[...]
